const unsigned char acoustic_nn_model[] __attribute__((aligned(4))) = {
    0x1c, 0x0, 0x0, 0x0, 0x54, 0x46, 0x4c, 0x33, 0x14, 0x0, 0x20, 0x0,
    0x1c, 0x0, 0x18, 0x0, 0x14, 0x0, 0x10, 0x0, 0xc, 0x0, 0x0, 0x0,
    0x8, 0x0, 0x4, 0x0, 0x14, 0x0, 0x0, 0x0, 0x1c, 0x0, 0x0, 0x0,
    0x98, 0x0, 0x0, 0x0, 0xf0, 0x0, 0x0, 0x0, 0x1c, 0x3f, 0x0, 0x0,
    0x2c, 0x3f, 0x0, 0x0, 0x7c, 0x49, 0x0, 0x0, 0x3, 0x0, 0x0, 0x0,
    0x1, 0x0, 0x0, 0x0, 0x10, 0x0, 0x0, 0x0, 0x0, 0x0, 0xa, 0x0,
    0x10, 0x0, 0xc, 0x0, 0x8, 0x0, 0x4, 0x0, 0xa, 0x0, 0x0, 0x0,
    0xc, 0x0, 0x0, 0x0, 0x1c, 0x0, 0x0, 0x0, 0x3c, 0x0, 0x0, 0x0,
    0xf, 0x0, 0x0, 0x0, 0x73, 0x65, 0x72, 0x76, 0x69, 0x6e, 0x67, 0x5f,
    0x64, 0x65, 0x66, 0x61, 0x75, 0x6c, 0x74, 0x0, 0x1, 0x0, 0x0, 0x0,
    0x4, 0x0, 0x0, 0x0, 0x90, 0xff, 0xff, 0xff, 0xa, 0x0, 0x0, 0x0,
    0x4, 0x0, 0x0, 0x0, 0x8, 0x0, 0x0, 0x0, 0x6f, 0x75, 0x74, 0x70,
    0x75, 0x74, 0x5f, 0x30, 0x0, 0x0, 0x0, 0x0, 0x1, 0x0, 0x0, 0x0,
    0x4, 0x0, 0x0, 0x0, 0xca, 0xc0, 0xff, 0xff, 0x4, 0x0, 0x0, 0x0,
    0xc, 0x0, 0x0, 0x0, 0x6b, 0x65, 0x72, 0x61, 0x73, 0x5f, 0x74, 0x65,
    0x6e, 0x73, 0x6f, 0x72, 0x0, 0x0, 0x0, 0x0, 0x2, 0x0, 0x0, 0x0,
    0x34, 0x0, 0x0, 0x0, 0x4, 0x0, 0x0, 0x0, 0xdc, 0xff, 0xff, 0xff,
    0xd, 0x0, 0x0, 0x0, 0x4, 0x0, 0x0, 0x0, 0x13, 0x0, 0x0, 0x0,
    0x43, 0x4f, 0x4e, 0x56, 0x45, 0x52, 0x53, 0x49, 0x4f, 0x4e, 0x5f, 0x4d,
    0x45, 0x54, 0x41, 0x44, 0x41, 0x54, 0x41, 0x0, 0x8, 0x0, 0xc, 0x0,
    0x8, 0x0, 0x4, 0x0, 0x8, 0x0, 0x0, 0x0, 0xc, 0x0, 0x0, 0x0,
    0x4, 0x0, 0x0, 0x0, 0x13, 0x0, 0x0, 0x0, 0x6d, 0x69, 0x6e, 0x5f,
    0x72, 0x75, 0x6e, 0x74, 0x69, 0x6d, 0x65, 0x5f, 0x76, 0x65, 0x72, 0x73,
    0x69, 0x6f, 0x6e, 0x0, 0xe, 0x0, 0x0, 0x0, 0x28, 0x3e, 0x0, 0x0,
    0x20, 0x3e, 0x0, 0x0, 0x10, 0x3d, 0x0, 0x0, 0x80, 0x3c, 0x0, 0x0,
    0x64, 0x3c, 0x0, 0x0, 0xd4, 0x3a, 0x0, 0x0, 0xc4, 0x32, 0x0, 0x0,
    0xb4, 0x0, 0x0, 0x0, 0xac, 0x0, 0x0, 0x0, 0xa4, 0x0, 0x0, 0x0,
    0x9c, 0x0, 0x0, 0x0, 0x94, 0x0, 0x0, 0x0, 0x74, 0x0, 0x0, 0x0,
    0x4, 0x0, 0x0, 0x0, 0x7e, 0xc1, 0xff, 0xff, 0x4, 0x0, 0x0, 0x0,
    0x60, 0x0, 0x0, 0x0, 0xc, 0x0, 0x0, 0x0, 0x8, 0x0, 0xe, 0x0,
    0x8, 0x0, 0x4, 0x0, 0x8, 0x0, 0x0, 0x0, 0x10, 0x0, 0x0, 0x0,
    0x28, 0x0, 0x0, 0x0, 0x0, 0x0, 0x6, 0x0, 0x8, 0x0, 0x4, 0x0,
    0x6, 0x0, 0x0, 0x0, 0x4, 0x0, 0x0, 0x0, 0x1, 0x0, 0x0, 0x0,
    0xea, 0x3, 0x0, 0x0, 0xc, 0x0, 0x18, 0x0, 0x14, 0x0, 0x10, 0x0,
    0xc, 0x0, 0x4, 0x0, 0xc, 0x0, 0x0, 0x0, 0x8a, 0x29, 0x2e, 0x8c,
    0x2b, 0x8, 0x48, 0xdf, 0x2, 0x0, 0x0, 0x0, 0x2, 0x0, 0x0, 0x0,
    0x4, 0x0, 0x0, 0x0, 0x6, 0x0, 0x0, 0x0, 0x32, 0x2e, 0x32, 0x30,
    0x2e, 0x30, 0x0, 0x0, 0xea, 0xc1, 0xff, 0xff, 0x4, 0x0, 0x0, 0x0,
    0x10, 0x0, 0x0, 0x0, 0x32, 0x2e, 0x31, 0x37, 0x2e, 0x30, 0x0, 0x0,
    0x0, 0x0, 0x0, 0x0, 0x0, 0x0, 0x0, 0x0, 0x64, 0xb8, 0xff, 0xff,
    0x68, 0xb8, 0xff, 0xff, 0x6c, 0xb8, 0xff, 0xff, 0x70, 0xb8, 0xff, 0xff,
    0x16, 0xc2, 0xff, 0xff, 0x4, 0x0, 0x0, 0x0, 0x0, 0x32, 0x0, 0x0,
    0xf1, 0x13, 0xce, 0xee, 0xd8, 0xb6, 0x3, 0xeb, 0xf8, 0xe7, 0x2e, 0xdc,
    0x7, 0x0, 0x64, 0x4b, 0x8, 0x6, 0xe1, 0xc9, 0x20, 0x5, 0xd3, 0xf2,
    0xed, 0x1c, 0xf9, 0xe1, 0x32, 0xef, 0x52, 0xe9, 0x2f, 0xf4, 0xa, 0xd3,
    0xd8, 0x10, 0xf1, 0xe1, 0x37, 0x2d, 0x24, 0xfb, 0x2f, 0xf4, 0xa, 0x36,
    0xdb, 0x82, 0x81, 0xd9, 0xbd, 0x32, 0x1d, 0xcc, 0xf7, 0xc0, 0x15, 0xe2,
    0x1f, 0xdf, 0x37, 0x17, 0xfb, 0xe8, 0xf0, 0xfc, 0xee, 0x10, 0xda, 0xce,
    0xd3, 0xdb, 0xd, 0xe8, 0xf4, 0xb0, 0x15, 0xf, 0x10, 0x14, 0x9, 0x31,
    0x9, 0xd, 0xc3, 0xc6, 0x8, 0xe4, 0xe0, 0x32, 0x12, 0xfe, 0xd5, 0xc9,
    0xfd, 0xc4, 0xe9, 0xb2, 0x23, 0x4, 0xe3, 0x23, 0xef, 0xa, 0x15, 0x3,
    0xbd, 0x25, 0xe6, 0xcd, 0x1f, 0xd2, 0xee, 0x1b, 0x29, 0xd0, 0x9, 0xfd,
    0x14, 0xe6, 0xa, 0xcb, 0x1a, 0x4c, 0xea, 0xdd, 0x20, 0xf0, 0xe6, 0xf8,
    0x4, 0xf1, 0x1b, 0xb, 0xdb, 0xa, 0x2e, 0xb, 0xfa, 0xfb, 0xd6, 0xe9,
    0xbd, 0xce, 0xeb, 0x8, 0x38, 0x1f, 0xc, 0xd7, 0xd, 0xfb, 0xe1, 0xcb,
    0xdb, 0x5, 0x31, 0xf7, 0xe8, 0xf7, 0xd4, 0x1c, 0xef, 0xef, 0x2b, 0xf,
    0x44, 0x29, 0xf1, 0xf7, 0x27, 0x13, 0xe1, 0xd7, 0xf7, 0xf6, 0xd2, 0xe4,
    0xc9, 0xfb, 0xdf, 0xc4, 0xf1, 0xe9, 0xa, 0xe0, 0x2, 0xc4, 0x2, 0xe9,
    0xcf, 0xc0, 0xe9, 0xfc, 0xe7, 0xe4, 0x9, 0xe4, 0xf0, 0xd6, 0xa2, 0x81,
    0xde, 0x26, 0xc6, 0xdb, 0xf9, 0x3, 0x14, 0xf1, 0xc8, 0x8b, 0xd7, 0xd4,
    0xc3, 0xc9, 0xfc, 0x41, 0xdb, 0xf5, 0xd6, 0xdb, 0xc9, 0xaf, 0xb0, 0xf9,
    0x1, 0xe5, 0xd8, 0xa1, 0xd1, 0x22, 0xfb, 0xd6, 0x1f, 0x1d, 0x33, 0xa4,
    0x1c, 0x2d, 0x1d, 0x35, 0x9e, 0x2b, 0x3d, 0xed, 0xa, 0xd1, 0xc, 0x92,
    0xca, 0xcf, 0xff, 0xf3, 0xe8, 0xd8, 0xe4, 0x6, 0x1b, 0xd5, 0xc3, 0xc1,
    0xc6, 0x9, 0xe0, 0xfc, 0x16, 0xfd, 0xee, 0xd5, 0xeb, 0xc5, 0xa9, 0xf7,
    0x6, 0xee, 0xed, 0xbf, 0x3b, 0x38, 0xb, 0xc8, 0x96, 0xd3, 0xc0, 0xb9,
    0xec, 0x33, 0x9, 0xf7, 0x11, 0xc6, 0xc9, 0xeb, 0xec, 0x13, 0x2f, 0xd4,
    0xe, 0x1b, 0x1a, 0x62, 0x5, 0x1c, 0xe9, 0xf0, 0xc0, 0x10, 0xf5, 0xcc,
    0xe1, 0xc, 0x27, 0xdb, 0xcb, 0xe, 0xf9, 0xf2, 0xe0, 0xec, 0x26, 0xbb,
    0xd1, 0x23, 0xfd, 0x6, 0x1a, 0xc4, 0xb5, 0xce, 0xfe, 0x1c, 0xe1, 0xfd,
    0x18, 0x6, 0x2f, 0x19, 0xfc, 0xb, 0x9, 0xe7, 0xec, 0xe, 0xfa, 0x1b,
    0xd3, 0xf7, 0x4, 0xf9, 0xec, 0xf4, 0xdd, 0x9, 0xe6, 0xc8, 0xe4, 0xfd,
    0xef, 0xc4, 0xc6, 0xe8, 0xca, 0x20, 0xd5, 0xce, 0x1a, 0x1c, 0x1, 0x12,
    0xd1, 0xe5, 0x93, 0x9, 0x26, 0x17, 0x95, 0xc7, 0xd7, 0xd7, 0x10, 0xc5,
    0x16, 0xc, 0xbf, 0xe8, 0x17, 0xb8, 0xfc, 0xf0, 0xa9, 0xbc, 0x3b, 0xb2,
    0x16, 0xca, 0xec, 0x2, 0xe0, 0x10, 0x39, 0x6a, 0x71, 0x3c, 0x1c, 0x1a,
    0xc0, 0x3f, 0xc7, 0x17, 0xc, 0xb2, 0x47, 0x44, 0xf8, 0x33, 0x54, 0x47,
    0xf, 0xdf, 0x7f, 0x3b, 0x4e, 0x2e, 0x52, 0x2a, 0x39, 0xc0, 0x67, 0xf8,
    0x63, 0x21, 0x0, 0x5f, 0xec, 0xeb, 0xd1, 0xb9, 0x1, 0xe8, 0xc4, 0x0,
    0xe4, 0x3f, 0x21, 0xe8, 0xc9, 0x6, 0x5b, 0x1d, 0x0, 0x16, 0xfc, 0x24,
    0x0, 0x46, 0xfe, 0xf3, 0xd5, 0x9a, 0xd2, 0x3f, 0xad, 0x2, 0xc4, 0x9,
    0x18, 0xb7, 0xe2, 0xcd, 0xeb, 0x10, 0xed, 0xcc, 0x62, 0xff, 0x61, 0x90,
    0x3f, 0x2a, 0xf5, 0x22, 0xa, 0xb, 0x22, 0xff, 0xcf, 0x10, 0xe1, 0xf1,
    0xdc, 0x20, 0x38, 0x42, 0xff, 0xeb, 0xf9, 0xfa, 0x1f, 0x25, 0x29, 0xb6,
    0x3, 0x19, 0xf6, 0xa, 0xf1, 0xef, 0xfe, 0x57, 0x2f, 0x3e, 0xa, 0x9,
    0xc, 0xf7, 0x17, 0x12, 0xdb, 0xff, 0x24, 0x13, 0x4b, 0x3, 0x7, 0x2a,
    0xfc, 0x0, 0xe4, 0x23, 0xd1, 0xde, 0x4, 0xf9, 0xe, 0x20, 0xeb, 0x1a,
    0xe7, 0xf1, 0xe7, 0xf7, 0xcd, 0xb, 0xd1, 0x0, 0xfe, 0xd9, 0x12, 0xe0,
    0xda, 0xf3, 0xfc, 0x25, 0xa7, 0xfc, 0xfa, 0x3e, 0x36, 0xf9, 0x29, 0xce,
    0x1f, 0x40, 0xe6, 0x1d, 0x40, 0xd3, 0x1c, 0x12, 0x44, 0x20, 0xdb, 0xf6,
    0x5, 0xe, 0xe8, 0xe7, 0xfa, 0x33, 0xc, 0x17, 0x13, 0xc6, 0xf0, 0xed,
    0x2c, 0x5c, 0x1e, 0x28, 0xa4, 0x19, 0x1b, 0x47, 0x32, 0xf2, 0x5b, 0xf0,
    0xd7, 0x10, 0xcf, 0xd6, 0xef, 0xf2, 0x0, 0x4, 0xf7, 0xf6, 0xeb, 0xc,
    0xe2, 0x16, 0x1, 0xf5, 0x3, 0xf8, 0x6, 0xf1, 0xed, 0x24, 0xfe, 0x12,
    0xf6, 0x37, 0xd, 0x9, 0xc3, 0xd2, 0xb, 0x21, 0x1b, 0xf9, 0xe9, 0x9,
    0x1c, 0x6, 0x18, 0x8, 0xeb, 0x31, 0x6, 0x0, 0xeb, 0xf, 0xe4, 0xec,
    0xe8, 0x12, 0xd5, 0xef, 0xeb, 0xd8, 0x0, 0x13, 0x3, 0x5, 0xf8, 0xdb,
    0xe7, 0xf3, 0xec, 0xff, 0x10, 0xff, 0xd6, 0xe, 0x0, 0x7, 0x24, 0xc4,
    0xed, 0x12, 0xfd, 0xe7, 0xe9, 0xf5, 0x8, 0x2e, 0xce, 0xc6, 0xe3, 0xf8,
    0x15, 0xd8, 0xf5, 0xf2, 0x39, 0x24, 0x3a, 0x3f, 0x36, 0x37, 0xec, 0x46,
    0xd3, 0x1a, 0xdc, 0x4a, 0x1f, 0x4a, 0xe6, 0xed, 0xfb, 0xee, 0x24, 0xbe,
    0xf0, 0x1b, 0x16, 0xfc, 0xe4, 0x32, 0x12, 0xb9, 0x20, 0xe1, 0xf, 0xff,
    0x39, 0x23, 0x69, 0xf, 0xbf, 0xed, 0x33, 0x27, 0x1d, 0x5, 0xd, 0x43,
    0x7f, 0x1b, 0xea, 0xc5, 0x38, 0xe4, 0x51, 0xf3, 0x3f, 0xe0, 0xeb, 0x23,
    0x1c, 0x22, 0x5, 0xcd, 0xf9, 0xc4, 0xe5, 0x12, 0x11, 0xab, 0x2c, 0xf,
    0xff, 0x16, 0x1e, 0x18, 0xe5, 0x12, 0xd9, 0x1a, 0xf8, 0x19, 0x4, 0xd7,
    0xd1, 0xf9, 0x31, 0xa, 0xbf, 0xe4, 0xa, 0x28, 0xc7, 0x7, 0xda, 0xf4,
    0x1, 0xd, 0x39, 0xf2, 0x2, 0x9, 0x1d, 0xe5, 0x8, 0x1, 0x3a, 0xd7,
    0xe8, 0xdc, 0x36, 0xe7, 0xe6, 0xe4, 0x4c, 0x19, 0xfc, 0x19, 0x23, 0x17,
    0x21, 0xdf, 0x6, 0x15, 0x24, 0xef, 0xec, 0xc, 0x4, 0xeb, 0xf0, 0xee,
    0xdf, 0xfb, 0xf8, 0xe3, 0x7, 0x6, 0xef, 0xa, 0xf9, 0xff, 0x9, 0xfc,
    0xcc, 0x13, 0x25, 0x4, 0x3, 0x0, 0xd6, 0x16, 0x1, 0x3c, 0x34, 0xff,
    0x1b, 0xfc, 0x19, 0x29, 0x1f, 0xdf, 0xe0, 0x5, 0x27, 0xf3, 0x26, 0xf6,
    0x7, 0x25, 0xf6, 0xb, 0x4d, 0xb, 0x2d, 0x9, 0x2c, 0xef, 0x59, 0xdb,
    0x20, 0xc, 0x11, 0x36, 0xd4, 0xdd, 0xea, 0x2a, 0x7, 0x2, 0xe9, 0x17,
    0xe9, 0xdf, 0x98, 0x39, 0xfc, 0xec, 0x27, 0xd6, 0xf5, 0x5, 0xb6, 0xfd,
    0xd2, 0x46, 0x29, 0x10, 0xd6, 0x35, 0x30, 0x24, 0x3c, 0xfb, 0xfd, 0xdc,
    0x53, 0xae, 0x23, 0xea, 0xfa, 0xf2, 0xc5, 0x27, 0x13, 0x27, 0xb8, 0xfe,
    0x4d, 0xc3, 0x6b, 0x5a, 0x28, 0x38, 0xb2, 0xbb, 0x55, 0xb9, 0xae, 0x6,
    0xba, 0xed, 0xfd, 0xd4, 0x0, 0x2, 0x22, 0xbf, 0x16, 0x28, 0xf9, 0x6d,
    0xca, 0xf7, 0xd3, 0xcd, 0xca, 0xcb, 0x0, 0x32, 0xf7, 0x2, 0xcd, 0x28,
    0xc6, 0x13, 0xe0, 0xda, 0xd, 0x41, 0xd5, 0x9, 0x1f, 0x5, 0xa8, 0xe0,
    0xfd, 0x24, 0xc8, 0xf0, 0xa, 0xb6, 0xc2, 0xd5, 0xe1, 0xf7, 0x1b, 0xe0,
    0xf5, 0xc9, 0x14, 0x4c, 0xd4, 0x29, 0xf7, 0x18, 0x32, 0x7, 0x19, 0x7,
    0x40, 0x16, 0x7f, 0xd2, 0xb5, 0x10, 0xe, 0x4, 0xd8, 0xf5, 0x57, 0xa8,
    0xdb, 0xf4, 0x40, 0xfe, 0xbf, 0xc5, 0x1c, 0x3d, 0x24, 0x55, 0x29, 0xc0,
    0xca, 0x4b, 0x11, 0x3e, 0x51, 0x64, 0x30, 0x4a, 0x1b, 0x29, 0x47, 0x30,
    0x47, 0xdd, 0xda, 0xfa, 0x4c, 0x13, 0x11, 0x3a, 0x3e, 0x16, 0xfa, 0xf,
    0x5, 0xf4, 0x15, 0xd3, 0x35, 0x1, 0xcf, 0xf4, 0xeb, 0x32, 0x33, 0x4d,
    0x61, 0xcd, 0x22, 0x29, 0x1e, 0x26, 0xe9, 0x1b, 0x3c, 0x1a, 0x5, 0x8,
    0x1, 0xd3, 0xf6, 0x3, 0x1c, 0x3e, 0xfb, 0x2e, 0x28, 0xf8, 0xd6, 0xd1,
    0xd6, 0x11, 0xc5, 0x1f, 0xf0, 0xdc, 0x7f, 0x62, 0xfd, 0x11, 0xb8, 0x3c,
    0x31, 0x3, 0x1d, 0x3d, 0x36, 0xb, 0x30, 0xcc, 0xf0, 0x14, 0xab, 0x44,
    0x3, 0xce, 0xf8, 0x2, 0xf, 0xb9, 0xf2, 0xdf, 0x2d, 0x1, 0xdd, 0xf9,
    0x12, 0x41, 0x1b, 0xfd, 0xe0, 0xe4, 0xe2, 0x1c, 0xf2, 0x11, 0xff, 0xe2,
    0xe6, 0x12, 0xf8, 0x3b, 0xfd, 0xf3, 0xe, 0x45, 0x5c, 0x19, 0x41, 0x21,
    0xde, 0xef, 0xe9, 0x21, 0xfe, 0xef, 0x13, 0x11, 0x1c, 0x26, 0xfc, 0x46,
    0x35, 0xe, 0x14, 0x5, 0xfb, 0xf9, 0x5, 0xfa, 0x13, 0x1, 0x12, 0x0,
    0xb6, 0x2, 0xea, 0xe4, 0xea, 0xf6, 0x4, 0x18, 0x24, 0x20, 0xee, 0xf,
    0xf9, 0xf8, 0x2c, 0xf1, 0xf5, 0xf5, 0xf5, 0x2a, 0x25, 0x11, 0x20, 0x34,
    0x11, 0x50, 0xf6, 0xd3, 0xe1, 0xf7, 0xe2, 0x36, 0x9, 0x12, 0xce, 0x5,
    0xe7, 0x52, 0x29, 0x1d, 0x19, 0x38, 0xc, 0x1f, 0x19, 0xef, 0x1c, 0x30,
    0x2, 0xed, 0x11, 0x5, 0xea, 0xee, 0xf6, 0xa, 0xf9, 0xde, 0xa, 0x1b,
    0xde, 0x1f, 0x12, 0xd8, 0xfd, 0xc, 0x12, 0xd9, 0xfe, 0x8, 0x30, 0xfa,
    0xeb, 0x31, 0x8, 0xeb, 0xf3, 0x0, 0x1f, 0x2f, 0xd4, 0xf3, 0xeb, 0x14,
    0xe2, 0xf6, 0x3b, 0xb, 0xef, 0x18, 0xe, 0x4, 0xf6, 0x4, 0xb4, 0xc7,
    0xee, 0xfc, 0xf0, 0xa, 0xfc, 0x30, 0x34, 0x21, 0x1f, 0xf4, 0x0, 0xff,
    0x1, 0xfe, 0x14, 0xd8, 0xdf, 0x29, 0xed, 0xee, 0x0, 0xe4, 0x26, 0x35,
    0xa, 0xf5, 0x18, 0x26, 0x17, 0xe2, 0xd5, 0x29, 0xe0, 0xef, 0x30, 0x36,
    0xc, 0xcb, 0xce, 0x3f, 0x21, 0xec, 0xeb, 0xca, 0x13, 0xdf, 0x45, 0x3,
    0xd8, 0x36, 0xc3, 0xdb, 0xf1, 0x14, 0x3e, 0x4f, 0xe1, 0xf1, 0x21, 0xf1,
    0x1e, 0xf2, 0xcc, 0x4, 0xbd, 0x15, 0x1c, 0xe3, 0x3, 0x17, 0xfa, 0x7,
    0x1f, 0xf0, 0xb7, 0xd1, 0xd8, 0x22, 0xd5, 0xed, 0x9c, 0xe8, 0x58, 0x63,
    0xf5, 0xfd, 0x3, 0xe, 0x66, 0x81, 0x4f, 0xe7, 0x3c, 0xda, 0xf, 0xc5,
    0x15, 0x48, 0x9, 0xb3, 0xe7, 0xdb, 0xc7, 0xd2, 0x5e, 0xbd, 0x4a, 0x18,
    0xff, 0x24, 0xf7, 0x40, 0x1b, 0x7, 0xe6, 0xb, 0xcb, 0xb8, 0xe7, 0xf2,
    0x11, 0x22, 0x22, 0xbf, 0xb9, 0x3, 0x33, 0x31, 0x1e, 0x18, 0xf8, 0x1,
    0x23, 0xea, 0x1a, 0x36, 0x1d, 0x7, 0x24, 0x1b, 0xe2, 0xfe, 0x1c, 0xde,
    0xa6, 0x13, 0x1, 0xd7, 0xf3, 0xe2, 0x2d, 0xad, 0xe6, 0x3a, 0xb, 0xf5,
    0x0, 0xf3, 0x14, 0xe5, 0xf2, 0xd1, 0xf0, 0x0, 0x3, 0xfb, 0xfe, 0x1b,
    0xf0, 0x15, 0xf1, 0xf1, 0xd6, 0x24, 0xe0, 0x0, 0xf2, 0xde, 0xe8, 0xef,
    0xfb, 0x3, 0x1c, 0x3, 0xe, 0xb, 0xe7, 0xe4, 0x29, 0x8, 0x26, 0x1a,
    0xc, 0x13, 0x1f, 0x23, 0xeb, 0xe9, 0x17, 0x12, 0x42, 0xd3, 0x1d, 0xf6,
    0xbd, 0x2, 0xe2, 0xe1, 0xf4, 0xfc, 0xe, 0xd8, 0xd9, 0xda, 0x32, 0xdf,
    0x2d, 0xda, 0xd7, 0x16, 0x19, 0xd0, 0xfe, 0x8, 0xfd, 0x19, 0xd1, 0x16,
    0xd, 0xad, 0x8, 0xf7, 0xf5, 0xf3, 0xf1, 0x2, 0xc4, 0x1c, 0xce, 0xd,
    0x13, 0xe, 0xeb, 0xf9, 0xff, 0x19, 0x23, 0xc8, 0xe7, 0x8, 0x30, 0x10,
    0xe5, 0xc9, 0x14, 0xe9, 0xc6, 0x99, 0x3b, 0xf5, 0x43, 0x16, 0xf3, 0x3f,
    0xdb, 0xf4, 0xec, 0xee, 0x16, 0x17, 0x2e, 0x6, 0x3d, 0xd2, 0xe5, 0x35,
    0xf9, 0xa2, 0x1, 0xb1, 0x29, 0x2d, 0xc2, 0x28, 0x12, 0x1f, 0xd9, 0x1,
    0x41, 0xe7, 0x13, 0xb6, 0x26, 0x25, 0x3d, 0xe6, 0xf1, 0xf2, 0x19, 0xe2,
    0xd5, 0xce, 0xc6, 0xc3, 0x1b, 0x81, 0xcd, 0x1d, 0xf3, 0x28, 0xc4, 0x1f,
    0xa, 0x4f, 0xe9, 0xdb, 0xcf, 0x21, 0xd2, 0xc7, 0x92, 0x17, 0x8, 0xc0,
    0xc0, 0xf0, 0xbf, 0xde, 0xe6, 0xe3, 0xbf, 0xd3, 0xfc, 0xdf, 0xcb, 0xf8,
    0xc, 0x5b, 0xd7, 0x3, 0xd7, 0xd3, 0x39, 0xc0, 0x39, 0xb1, 0x43, 0xd9,
    0xc9, 0xca, 0xe9, 0xe6, 0xfd, 0xec, 0x7, 0xa, 0x5, 0xb, 0x1e, 0xe7,
    0xf8, 0xd6, 0x29, 0xff, 0xf8, 0x6, 0xe8, 0xc8, 0xfb, 0x1e, 0x1b, 0xdd,
    0x11, 0x2e, 0x25, 0x2, 0x8, 0x23, 0x6, 0xf7, 0x15, 0xf1, 0xdf, 0x8,
    0xe, 0xf3, 0x12, 0x4b, 0x10, 0x21, 0x33, 0x5, 0xed, 0xf4, 0xea, 0x21,
    0xf0, 0xf9, 0xf7, 0x20, 0xff, 0x43, 0x16, 0x1f, 0xf8, 0x2d, 0x26, 0x15,
    0x2a, 0x25, 0x2c, 0xe1, 0xfa, 0xd, 0x23, 0xf2, 0x1d, 0x13, 0x6, 0xea,
    0xfb, 0xf0, 0x22, 0x11, 0xf, 0xc9, 0x22, 0x26, 0xe3, 0xe, 0xbb, 0x33,
    0x16, 0xc, 0x1e, 0x17, 0x25, 0x23, 0x18, 0xfa, 0x18, 0xfb, 0x35, 0x34,
    0x3f, 0x19, 0x2a, 0x36, 0xd1, 0xdb, 0x3e, 0x1b, 0xca, 0xf5, 0x63, 0xec,
    0x25, 0x27, 0x97, 0xfc, 0x18, 0x12, 0x3c, 0xcc, 0x7f, 0xff, 0xf4, 0xfb,
    0x1d, 0x24, 0x28, 0xcd, 0x15, 0x53, 0x1, 0xec, 0x8e, 0xb5, 0xe6, 0x2c,
    0xc2, 0x44, 0xef, 0x2, 0x17, 0x2a, 0xcf, 0xd5, 0xcf, 0x3a, 0x42, 0xc4,
    0x38, 0x2, 0x1e, 0x38, 0x25, 0x1a, 0xf4, 0xf9, 0xe, 0x3a, 0xf, 0xd9,
    0x19, 0xf3, 0x1a, 0x2f, 0xed, 0x15, 0x3d, 0xda, 0x26, 0x32, 0xd, 0x1a,
    0x3d, 0xbc, 0xd5, 0xb0, 0xcc, 0xca, 0x1c, 0xdd, 0xd9, 0xd7, 0xec, 0x8,
    0x4, 0x11, 0xdf, 0xe4, 0xfa, 0x35, 0x7b, 0x6, 0x28, 0x3a, 0x37, 0xec,
    0xa9, 0x4a, 0x3d, 0xcd, 0xd8, 0x20, 0xfc, 0xbc, 0xd1, 0x8, 0x1e, 0xeb,
    0xcf, 0xef, 0xd8, 0x2c, 0x41, 0x17, 0x54, 0x16, 0xf5, 0x17, 0x34, 0xf9,
    0xfc, 0x2c, 0xda, 0x58, 0x22, 0x31, 0x21, 0xaf, 0x20, 0x8b, 0x9d, 0x13,
    0xde, 0xd5, 0x3d, 0x1, 0x53, 0x1d, 0xe, 0x7, 0x25, 0x61, 0x1a, 0x1b,
    0xc5, 0xf, 0xf1, 0xe0, 0x5, 0x14, 0x7, 0x1e, 0xe7, 0xf2, 0xf4, 0xf9,
    0xeb, 0xf, 0xc6, 0xc2, 0xfb, 0xc, 0xe5, 0xc5, 0xe1, 0xa7, 0xeb, 0xc4,
    0xd, 0xe9, 0x1b, 0xf4, 0xc8, 0xff, 0x13, 0xf9, 0xca, 0xf8, 0x81, 0xef,
    0x20, 0xe1, 0x3e, 0x24, 0xc4, 0xfb, 0x42, 0xd4, 0x23, 0x1, 0x1e, 0xb,
    0x14, 0xdd, 0x35, 0x9, 0x15, 0xf9, 0x99, 0xf8, 0xc8, 0xaa, 0xac, 0xf9,
    0x6, 0xa1, 0xd5, 0xdf, 0xf4, 0x15, 0xcb, 0xde, 0xc, 0xf7, 0xf, 0x1e,
    0xf9, 0x17, 0xf6, 0xb, 0x10, 0x25, 0xe8, 0x7, 0xf, 0xef, 0x1e, 0xfc,
    0x3, 0xd1, 0x29, 0x8, 0x37, 0xf1, 0xe9, 0xb, 0x8, 0xc7, 0xfa, 0xf9,
    0xfc, 0x20, 0xf6, 0xe5, 0xfe, 0x1, 0x10, 0xff, 0xfe, 0xcc, 0xee, 0xf3,
    0xeb, 0x0, 0xca, 0x6, 0xeb, 0x25, 0x8, 0x0, 0xd, 0xfd, 0xfb, 0xd7,
    0xe4, 0x1, 0x30, 0x30, 0xea, 0xa7, 0xb, 0x2, 0xf7, 0xfe, 0x10, 0x4,
    0x31, 0xfa, 0xf5, 0xfa, 0x4, 0xec, 0xee, 0xcf, 0xef, 0xf9, 0x1e, 0xe8,
    0xee, 0xee, 0xca, 0xf9, 0xf1, 0xee, 0x11, 0x0, 0x14, 0xed, 0xde, 0x29,
    0xf5, 0xf9, 0xd6, 0xde, 0xcb, 0xb4, 0xdf, 0xe0, 0xe3, 0x1e, 0xd0, 0xe1,
    0xe0, 0xf9, 0xbc, 0x1, 0xf, 0xfb, 0xfd, 0xdf, 0x37, 0x81, 0x17, 0xe4,
    0x4, 0xe9, 0x9, 0x1d, 0xd, 0x9, 0xf6, 0x43, 0xb, 0xd6, 0xe1, 0xe0,
    0xce, 0xc1, 0xf9, 0xdc, 0xea, 0x1e, 0xdc, 0xf6, 0xa8, 0xf6, 0xe2, 0xcd,
    0xe8, 0xe1, 0xfd, 0xec, 0x21, 0xf6, 0xe1, 0xb1, 0xe0, 0x5, 0xb5, 0xdf,
    0xc3, 0xfb, 0x2e, 0xf8, 0xd3, 0xc8, 0x1d, 0x1f, 0x2a, 0xd1, 0xff, 0x21,
    0xf4, 0xc8, 0xf4, 0xee, 0x3, 0x0, 0xc0, 0x11, 0xf1, 0xba, 0xed, 0x11,
    0xe3, 0xea, 0x3c, 0xc6, 0x32, 0x9, 0x28, 0xed, 0xea, 0xd0, 0xd7, 0xf4,
    0xe7, 0xf0, 0xd2, 0x1c, 0x1b, 0xc6, 0xcf, 0xea, 0xf0, 0x16, 0xfc, 0xe9,
    0xf, 0xf0, 0x9, 0xff, 0x2e, 0x1d, 0x5, 0xed, 0xee, 0x1b, 0xe9, 0xe3,
    0x0, 0xd, 0x21, 0xdb, 0xeb, 0x2c, 0xef, 0xea, 0xeb, 0x12, 0xf6, 0xcb,
    0xef, 0x7, 0xf3, 0x13, 0x1a, 0xfc, 0xcc, 0xec, 0xeb, 0xf4, 0x1b, 0x15,
    0xef, 0xd, 0x28, 0x13, 0xeb, 0x16, 0xec, 0xee, 0x6, 0xf1, 0x13, 0xf3,
    0x8, 0xf5, 0xf7, 0x6, 0x9, 0x25, 0x1, 0x9, 0xd8, 0xd5, 0x15, 0xfb,
    0xe8, 0xba, 0xde, 0xe2, 0xeb, 0xb, 0xe0, 0xe3, 0x1e, 0xed, 0xdd, 0xfc,
    0x7, 0xf7, 0xdc, 0xd6, 0x2, 0xff, 0xc8, 0x2, 0xe2, 0xf5, 0xef, 0xec,
    0xe7, 0xdb, 0xd3, 0x5, 0x8, 0xf7, 0xf8, 0xf8, 0xc1, 0x4, 0x5, 0xc,
    0x1c, 0xf6, 0xf6, 0xee, 0x7, 0x2c, 0x28, 0x3, 0xfd, 0xd, 0xe9, 0xe6,
    0xcf, 0xb, 0xbe, 0xd9, 0x49, 0xdf, 0x37, 0xc6, 0x17, 0xbf, 0x7f, 0x51,
    0x13, 0xeb, 0x1e, 0x40, 0x5f, 0x21, 0x35, 0x4c, 0x0, 0x3a, 0x30, 0xf9,
    0x1e, 0x24, 0x14, 0xf, 0xab, 0x1f, 0xd9, 0x94, 0x21, 0xff, 0x1b, 0x1f,
    0x42, 0xdf, 0x13, 0xd8, 0xe7, 0xba, 0xe5, 0x3b, 0x19, 0xdc, 0x1f, 0x18,
    0xd1, 0x0, 0xbf, 0xf0, 0x2a, 0x4, 0x19, 0x49, 0x1a, 0x12, 0xf3, 0xd5,
    0xc4, 0xbb, 0xed, 0xd5, 0x31, 0xaf, 0x31, 0x27, 0xe7, 0x0, 0x0, 0xb4,
    0xf, 0xc0, 0x7, 0xf3, 0xf3, 0x0, 0x2a, 0xec, 0xc2, 0x25, 0xd7, 0xf1,
    0xc4, 0xee, 0xd3, 0xeb, 0x5, 0xf9, 0xe7, 0x8, 0xcf, 0x14, 0xde, 0xbd,
    0x8, 0xec, 0xd7, 0xf4, 0xb1, 0xfb, 0xf9, 0xf7, 0xde, 0xe6, 0xf4, 0xda,
    0xf8, 0xf3, 0xdc, 0xff, 0xf, 0x4, 0x3, 0xff, 0xf1, 0x2a, 0xf0, 0x1,
    0x34, 0xe7, 0xe4, 0xdc, 0xb7, 0xb, 0x19, 0xec, 0xe0, 0x9, 0xfc, 0xef,
    0xe0, 0xeb, 0xdc, 0xdd, 0xce, 0xe1, 0xec, 0xf, 0xee, 0x9, 0xf, 0xa,
    0x7, 0x28, 0x5, 0xe2, 0x3, 0x1, 0x29, 0x40, 0x12, 0xd1, 0x0, 0xbe,
    0x2, 0xe3, 0x15, 0xef, 0xce, 0xf8, 0x3, 0xf7, 0x1, 0xb, 0xe7, 0xea,
    0xfa, 0x10, 0x6, 0x10, 0xbe, 0xd9, 0xe0, 0xf5, 0xd2, 0x96, 0xf2, 0xf7,
    0x3, 0x9, 0xf8, 0x4, 0xc8, 0x1c, 0xf2, 0xc9, 0x3, 0xf0, 0xdb, 0xd1,
    0xe2, 0x1a, 0xc1, 0x2f, 0xd6, 0xe0, 0xc9, 0xf4, 0x21, 0x3, 0x4f, 0xcb,
    0xc1, 0xaa, 0x8, 0x34, 0xc7, 0xf1, 0xf7, 0xb, 0x15, 0x37, 0xc1, 0x42,
    0xe, 0xec, 0xe0, 0xb2, 0xbf, 0xd3, 0xe, 0xb6, 0x4, 0xc, 0xdc, 0xbe,
    0xf2, 0x8a, 0xcb, 0xa6, 0xd9, 0xbd, 0xb0, 0xed, 0xdd, 0x18, 0xea, 0xae,
    0xe9, 0x9f, 0x3a, 0x9c, 0xac, 0x16, 0xc4, 0xa, 0x81, 0xf7, 0xe7, 0xe3,
    0x1f, 0xbd, 0x35, 0xca, 0xd4, 0xe8, 0xd4, 0x5f, 0xe3, 0x9a, 0xee, 0xd3,
    0xb1, 0xd, 0xf0, 0xd6, 0xeb, 0xfa, 0x69, 0xf1, 0xd, 0xd7, 0xed, 0x29,
    0xee, 0x9, 0xd2, 0x10, 0x1d, 0x3, 0xdb, 0xe1, 0xf6, 0x1a, 0xec, 0xde,
    0xe, 0xdb, 0x7, 0xf1, 0x33, 0xe1, 0xb, 0x7, 0xfb, 0x31, 0x3b, 0xdf,
    0x0, 0x45, 0xd6, 0xf5, 0x30, 0x21, 0xcd, 0xfc, 0x10, 0xf, 0xd8, 0xe9,
    0xe7, 0xe4, 0x1d, 0xd9, 0xe5, 0x16, 0xd8, 0x11, 0x27, 0xdb, 0xe6, 0xb,
    0xfd, 0xcd, 0x6, 0xd8, 0x5, 0x14, 0x1a, 0x3e, 0x29, 0x1c, 0xc8, 0xf7,
    0xd8, 0xf9, 0x11, 0xe5, 0xe4, 0xd9, 0xe9, 0xf5, 0xff, 0xd9, 0xed, 0x8,
    0xc8, 0xbe, 0x20, 0x1b, 0xf3, 0xe6, 0x26, 0x27, 0xc7, 0xf6, 0xf, 0x17,
    0x4e, 0xe2, 0xa, 0x2b, 0x12, 0xea, 0xe1, 0x0, 0xdb, 0x13, 0xe6, 0xee,
    0xdf, 0xd9, 0xd2, 0xf7, 0x23, 0xde, 0xc7, 0xda, 0xf9, 0xa7, 0xd1, 0x40,
    0xba, 0xa9, 0xe5, 0xfe, 0x2b, 0xb4, 0xde, 0xc6, 0xf8, 0x1, 0x4, 0xf7,
    0xf3, 0xde, 0xdd, 0x10, 0xe4, 0xd5, 0xb, 0xbd, 0x2b, 0x19, 0x1c, 0x2d,
    0x8, 0x26, 0xe9, 0xe6, 0x2e, 0x2b, 0xd7, 0xf5, 0x7, 0x14, 0x28, 0xfd,
    0x25, 0x0, 0x1f, 0xb, 0x20, 0x10, 0xdd, 0xca, 0xfb, 0xf3, 0xd2, 0xdf,
    0x28, 0x14, 0x42, 0x18, 0xe7, 0xfa, 0xe4, 0xf9, 0xe6, 0xba, 0x8a, 0xcd,
    0xf2, 0xd6, 0x28, 0x3b, 0x23, 0xec, 0x2b, 0xc1, 0x3b, 0xe8, 0x14, 0x5,
    0xe8, 0x3a, 0xbb, 0xe4, 0xf6, 0x1d, 0x34, 0x1, 0x2b, 0x21, 0xea, 0x25,
    0x2, 0x1, 0x13, 0xd0, 0xc5, 0xe2, 0x0, 0x17, 0xa7, 0xb8, 0xc0, 0xeb,
    0x35, 0x1, 0xf8, 0x31, 0xea, 0xf2, 0xcd, 0xfb, 0xf8, 0x30, 0xef, 0xf6,
    0xe8, 0x3, 0xac, 0x26, 0x6, 0x31, 0xd8, 0xe2, 0x9e, 0x1c, 0xdb, 0xe1,
    0x8, 0xc7, 0xd1, 0xd1, 0x33, 0x1b, 0xf9, 0x1, 0x9, 0x1f, 0x2f, 0xd0,
    0xad, 0x13, 0xf0, 0x5, 0x3, 0xec, 0xf6, 0xfc, 0xef, 0xe3, 0x3e, 0x14,
    0xe0, 0x6, 0x25, 0x22, 0xcd, 0xef, 0x81, 0xdd, 0xc3, 0xff, 0xfe, 0xfc,
    0x16, 0x30, 0x21, 0xde, 0x13, 0xea, 0x13, 0x97, 0xe6, 0x27, 0x25, 0xf1,
    0xac, 0xf, 0xe5, 0xd5, 0xbb, 0xcf, 0x7, 0xfd, 0x12, 0xc3, 0x2, 0xd5,
    0xfc, 0xfd, 0xeb, 0x1e, 0x7, 0x2a, 0xee, 0x18, 0xc9, 0x20, 0xb5, 0xd3,
    0x43, 0x13, 0x4f, 0xbf, 0xbd, 0x95, 0xf2, 0xed, 0xe9, 0xd9, 0xf0, 0xff,
    0x6, 0xe2, 0xd5, 0xdb, 0xf7, 0x3, 0xb0, 0xe8, 0xec, 0xd7, 0x24, 0xd9,
    0xc5, 0x6, 0x12, 0xe5, 0x13, 0x81, 0x2e, 0x1, 0xec, 0xc6, 0x15, 0xf,
    0x4d, 0xd8, 0xf, 0x4, 0xeb, 0xde, 0x21, 0x14, 0xeb, 0xf8, 0x0, 0xdf,
    0xbd, 0x0, 0xa0, 0xd2, 0xc4, 0xd5, 0xc6, 0xc0, 0xa, 0xcd, 0x11, 0x1e,
    0x14, 0xdb, 0xc7, 0xec, 0xca, 0xb, 0xe2, 0x11, 0xfb, 0xf9, 0x5, 0x1d,
    0xda, 0xaa, 0xd8, 0xf9, 0xf4, 0xb3, 0xba, 0x6, 0xf3, 0xfb, 0x15, 0xe8,
    0xef, 0xfe, 0xdb, 0xb, 0xf6, 0xfd, 0x2c, 0x2a, 0x8, 0xf7, 0x37, 0xed,
    0xf3, 0x41, 0x13, 0xfc, 0xf1, 0x7, 0xb5, 0xcd, 0x12, 0xe6, 0x1, 0x34,
    0xff, 0x13, 0x2, 0xd5, 0x18, 0xec, 0x34, 0xf9, 0xd1, 0xf6, 0xe8, 0x3,
    0x0, 0x11, 0x11, 0xe9, 0xfa, 0x25, 0x1, 0xd3, 0xe, 0xed, 0xc3, 0x20,
    0xe9, 0x4, 0xd2, 0x38, 0x14, 0xd9, 0xc, 0xd6, 0x19, 0xef, 0xec, 0x6,
    0x1d, 0xea, 0xe8, 0xd2, 0xec, 0xf9, 0x10, 0x4, 0xf3, 0x9, 0x12, 0x1b,
    0xed, 0x6, 0xec, 0x0, 0xd, 0xfe, 0xfc, 0xe0, 0x14, 0x4, 0xf6, 0x1,
    0x0, 0x4, 0xf1, 0xe6, 0x1b, 0xf5, 0xb, 0xc, 0x22, 0x0, 0xf1, 0xee,
    0xdf, 0xe6, 0x5, 0xfd, 0x28, 0xfe, 0xe8, 0xef, 0x3d, 0x0, 0xf6, 0xae,
    0x26, 0x4, 0xf0, 0xc9, 0xec, 0xf6, 0xdc, 0xff, 0xfc, 0xe7, 0xed, 0xf0,
    0xd5, 0xea, 0xca, 0xe3, 0xd8, 0xd5, 0xec, 0xd9, 0x11, 0x3, 0x5, 0xe1,
    0xfa, 0x4, 0x18, 0x7, 0x1f, 0x5, 0x1a, 0x3, 0xe, 0x2, 0xf5, 0x11,
    0xfb, 0xe7, 0x9, 0xe, 0x0, 0xef, 0x12, 0x5, 0x1c, 0x25, 0x2, 0x12,
    0xfb, 0x23, 0x2, 0x1, 0xed, 0xf, 0x1c, 0x17, 0xf3, 0x8, 0x1, 0x15,
    0x5, 0x12, 0x2d, 0x1e, 0x22, 0x9, 0x2a, 0xf6, 0xf7, 0x0, 0xde, 0x16,
    0x16, 0xef, 0xd, 0xf5, 0xfe, 0xc, 0x10, 0x28, 0x26, 0xd, 0x26, 0xb,
    0x18, 0xf5, 0x3, 0xff, 0xee, 0x35, 0xf8, 0x18, 0xb, 0x22, 0x36, 0x10,
    0x6, 0x11, 0x12, 0x2f, 0x12, 0x6, 0x1d, 0x27, 0xd8, 0xd3, 0xf6, 0xd5,
    0x4, 0xf3, 0xfc, 0x12, 0x14, 0x0, 0xa, 0x15, 0x23, 0x28, 0xee, 0x44,
    0xff, 0x14, 0x27, 0x1f, 0xe8, 0x16, 0xc5, 0xd, 0x26, 0xde, 0x20, 0xa,
    0xf8, 0xe8, 0xe8, 0x1f, 0x6, 0x4a, 0x3, 0xc3, 0x1e, 0x7f, 0x15, 0x2b,
    0xed, 0xe4, 0x11, 0xee, 0xd6, 0xea, 0x7, 0xfe, 0xe1, 0xf1, 0x63, 0xc,
    0x43, 0xe4, 0xf9, 0x32, 0x12, 0xa, 0xc3, 0x22, 0xe, 0xf1, 0xe6, 0x3e,
    0xda, 0x2c, 0xdf, 0xef, 0x2b, 0xd8, 0x28, 0xe, 0x1f, 0xc1, 0x28, 0x18,
    0x13, 0xa, 0x14, 0xca, 0xc2, 0x27, 0x4, 0x25, 0xe3, 0xe6, 0x11, 0xd8,
    0xf1, 0x32, 0x51, 0xe7, 0x9, 0xf4, 0x3b, 0x20, 0x32, 0x13, 0x25, 0xe2,
    0x28, 0x15, 0xe6, 0xda, 0xff, 0xf7, 0x24, 0x0, 0x0, 0x34, 0x0, 0xfc,
    0xf3, 0x4, 0x14, 0x8, 0x14, 0x7, 0x44, 0x23, 0xee, 0x3, 0x7, 0xf,
    0x8e, 0xee, 0xd1, 0x31, 0x45, 0xc2, 0x20, 0xed, 0x3, 0xe2, 0xc7, 0xf2,
    0xc8, 0xd6, 0xb3, 0xa, 0x47, 0x1c, 0xb4, 0xec, 0xef, 0xf7, 0xe4, 0xb8,
    0x10, 0x7, 0xee, 0xcb, 0x1c, 0x23, 0xc7, 0xe5, 0xda, 0x86, 0xc8, 0xf8,
    0x47, 0xc0, 0xed, 0x2b, 0x94, 0x49, 0x3, 0x2, 0xd6, 0xea, 0xc5, 0x9d,
    0x11, 0x28, 0xf0, 0xde, 0x3a, 0x1b, 0x6, 0x4, 0x1, 0xef, 0xfb, 0xdb,
    0x2, 0xe5, 0xf8, 0x20, 0x8, 0x15, 0x24, 0xd8, 0xbc, 0xda, 0xfa, 0xdd,
    0xfb, 0x22, 0xf1, 0xc4, 0x7, 0x41, 0xe6, 0x19, 0xf6, 0xe, 0xcd, 0xe5,
    0xc0, 0x15, 0xe2, 0xdd, 0xb1, 0xf, 0xd6, 0xfc, 0xf1, 0xd6, 0xe0, 0xd0,
    0x11, 0x6, 0x1, 0xb3, 0xe7, 0x6, 0x10, 0x13, 0x10, 0xed, 0xf9, 0xe9,
    0x6, 0xf2, 0xed, 0xe, 0x1a, 0xec, 0x0, 0xd, 0xf5, 0x9, 0x42, 0x0,
    0xef, 0x16, 0xd6, 0x11, 0x3d, 0xf0, 0xdf, 0xd2, 0xdb, 0xf9, 0x15, 0xf0,
    0x8, 0xdc, 0xb, 0xe8, 0x15, 0xee, 0xd4, 0xef, 0xe2, 0xf4, 0xf9, 0xdc,
    0x22, 0x13, 0x28, 0xfe, 0x1, 0x1e, 0x37, 0xb, 0xf4, 0xf, 0x17, 0xe1,
    0xdf, 0xd2, 0xda, 0xf0, 0x1e, 0x4d, 0x1a, 0x57, 0x7, 0xed, 0x9, 0xa,
    0x17, 0xa6, 0xe1, 0xe6, 0xe8, 0x1e, 0xfc, 0xe5, 0xcf, 0xff, 0xfd, 0xea,
    0xe5, 0x81, 0xce, 0xf5, 0xee, 0xad, 0xc8, 0x0, 0xc0, 0xa9, 0xb, 0xf1,
    0x34, 0xdf, 0x32, 0xe8, 0xe4, 0x2a, 0xeb, 0x33, 0xc3, 0xcb, 0x15, 0x5,
    0x7, 0xe0, 0x3e, 0xa3, 0xd8, 0xc0, 0x20, 0x8, 0xce, 0xb5, 0xdd, 0xe1,
    0x2, 0x22, 0xb9, 0x68, 0x2b, 0x6, 0xef, 0x99, 0xb4, 0xff, 0x2b, 0x1f,
    0x1, 0xf, 0xd0, 0xc3, 0xd1, 0xe2, 0xf8, 0xba, 0x20, 0xdf, 0xe0, 0x44,
    0xa4, 0x17, 0xf7, 0xdc, 0xc0, 0x88, 0x94, 0xcc, 0xe6, 0xe7, 0xdf, 0xe9,
    0xd2, 0xc7, 0xb1, 0xe1, 0xc8, 0xa6, 0xdb, 0xad, 0xa3, 0x6, 0x9a, 0xc9,
    0x8, 0xe5, 0xc8, 0xc2, 0xec, 0x4, 0xea, 0xe8, 0xf2, 0xcd, 0x25, 0xdb,
    0x30, 0x42, 0x9, 0xe2, 0xe5, 0xfc, 0x9f, 0xfc, 0x3, 0x16, 0xd8, 0x10,
    0xfd, 0x16, 0xf0, 0x23, 0x34, 0x1b, 0x2, 0x33, 0xec, 0xc3, 0xd7, 0xba,
    0xb2, 0xcd, 0x1f, 0x8d, 0xe0, 0x6a, 0xcc, 0x35, 0xfa, 0x10, 0x8, 0xec,
    0x14, 0xf2, 0x50, 0x34, 0xdc, 0xf8, 0x25, 0xe1, 0xfe, 0xe9, 0xe7, 0xe1,
    0xf8, 0xd4, 0xf1, 0xec, 0x4c, 0x7, 0x10, 0xf7, 0x8, 0x21, 0x64, 0x42,
    0x96, 0xb, 0xa3, 0xb6, 0x1c, 0x1c, 0xd0, 0xe2, 0x25, 0xcc, 0x7, 0xd8,
    0xe3, 0xda, 0xf0, 0xf5, 0xcf, 0xb1, 0xef, 0x21, 0xda, 0xc0, 0x99, 0xd5,
    0xdb, 0xf6, 0xf9, 0x81, 0xe4, 0x8a, 0xd5, 0xc5, 0x1a, 0xcf, 0x96, 0x9,
    0xec, 0xe7, 0xba, 0x9c, 0xa3, 0x24, 0xde, 0xf0, 0xfb, 0xe1, 0x26, 0xb7,
    0xfc, 0xea, 0xa7, 0xc, 0xd3, 0xa6, 0x2c, 0x14, 0xbe, 0x6, 0xb, 0xc9,
    0x2e, 0x1, 0x2c, 0x1f, 0x46, 0xf6, 0x31, 0x2a, 0x0, 0x27, 0xe, 0x36,
    0x29, 0x9, 0x23, 0xd, 0xd3, 0xfb, 0x13, 0x30, 0x30, 0xee, 0xb, 0xef,
    0xfe, 0xff, 0xf8, 0x10, 0x6, 0x16, 0xc, 0xdb, 0xd, 0x27, 0x25, 0x28,
    0x22, 0x31, 0x1, 0x35, 0x14, 0x10, 0x2e, 0xe, 0x23, 0xe8, 0x15, 0x36,
    0x4c, 0x17, 0x3d, 0x23, 0x1f, 0x19, 0x1, 0x10, 0xfb, 0xdc, 0x7, 0x1,
    0x24, 0x3d, 0x11, 0x1a, 0xcc, 0x23, 0x2e, 0xec, 0xff, 0x1d, 0xcd, 0x3d,
    0x22, 0x4b, 0x33, 0x21, 0x65, 0xf0, 0x1b, 0x31, 0xdc, 0xf7, 0x27, 0x1,
    0x2b, 0xdb, 0x42, 0x3f, 0xf6, 0x3, 0x26, 0x2d, 0x2e, 0x3d, 0x25, 0x2c,
    0x1b, 0x22, 0x13, 0xf1, 0xeb, 0x21, 0xde, 0x13, 0x9, 0x30, 0x1, 0xed,
    0x2d, 0x30, 0x45, 0x1b, 0xfc, 0x27, 0xf7, 0x9, 0xf4, 0x44, 0xcd, 0x49,
    0xc6, 0x1f, 0x2d, 0x36, 0x34, 0xe7, 0x4f, 0xb, 0x24, 0xf1, 0x9, 0xb,
    0x15, 0x2b, 0x27, 0xf5, 0x51, 0x5d, 0xf3, 0x69, 0x1f, 0xf4, 0x1d, 0x3c,
    0x29, 0x0, 0xa, 0x19, 0x36, 0x51, 0xd, 0x13, 0x0, 0x27, 0x1e, 0x23,
    0x1e, 0x21, 0xec, 0xf4, 0x7, 0x1a, 0x2c, 0x28, 0x1, 0x14, 0xe4, 0xe,
    0x1c, 0x5, 0x13, 0x43, 0x6f, 0x24, 0x2e, 0x28, 0x3b, 0x4c, 0x7f, 0xfe,
    0x47, 0xf3, 0x4d, 0x26, 0x16, 0x5, 0x5, 0x23, 0xf8, 0x3a, 0x13, 0x24,
    0x52, 0x5d, 0x2, 0x17, 0x13, 0x3e, 0x22, 0x40, 0xd9, 0xf8, 0xe8, 0xf9,
    0x1f, 0x10, 0xfb, 0x1a, 0x23, 0x4, 0xd9, 0xa, 0xdf, 0xf8, 0x4, 0xdb,
    0xf, 0xf7, 0xf5, 0xfe, 0x1, 0x40, 0x4, 0x2d, 0xfe, 0x27, 0x0, 0x3,
    0xdf, 0x20, 0x30, 0xd, 0xe6, 0xe8, 0xf4, 0xfe, 0xfd, 0x26, 0x14, 0xc,
    0xec, 0xf9, 0xd5, 0x1e, 0xf1, 0xfe, 0xf0, 0x24, 0xfd, 0xda, 0xe2, 0x18,
    0xb, 0xe, 0x19, 0xfa, 0xf5, 0x3d, 0xe8, 0xd6, 0xb9, 0xe8, 0xf1, 0xe9,
    0xe, 0x18, 0xf2, 0xf, 0x18, 0x7, 0x1e, 0xec, 0xfd, 0x33, 0x2, 0x13,
    0x3, 0xb, 0x0, 0x10, 0xba, 0xde, 0xde, 0x4, 0x5, 0xcc, 0xe9, 0x4,
    0x42, 0xe, 0xf8, 0x29, 0x45, 0xfd, 0xd1, 0x1c, 0xda, 0x39, 0xc8, 0x4e,
    0xd, 0x39, 0xf7, 0xd9, 0xa, 0xd0, 0x7f, 0xe9, 0x4, 0x5d, 0xd1, 0xf6,
    0x99, 0xfe, 0x9c, 0xb1, 0x1a, 0x1f, 0xd9, 0xac, 0xdb, 0x1, 0x40, 0xed,
    0xbc, 0x91, 0x67, 0x70, 0xe7, 0x30, 0x16, 0x6, 0x50, 0x25, 0xd8, 0xba,
    0x39, 0xe5, 0x1b, 0xb7, 0x3a, 0xfc, 0xd8, 0xb, 0x1d, 0x50, 0xef, 0xfd,
    0xed, 0x3d, 0xfb, 0xea, 0xdb, 0xec, 0x7, 0x62, 0xcf, 0x20, 0xea, 0xc4,
    0xe0, 0x30, 0xfe, 0xfa, 0xf, 0x20, 0xf, 0xda, 0xa2, 0x1a, 0x5, 0xc6,
    0x0, 0xf8, 0xee, 0x7, 0xfc, 0x1b, 0x27, 0xfd, 0x0, 0xfb, 0x5e, 0xa,
    0x1a, 0x3d, 0x48, 0x0, 0x1f, 0xee, 0x69, 0xab, 0x1b, 0xd8, 0x40, 0xcf,
    0xb5, 0x33, 0x40, 0x2, 0x3, 0xed, 0x66, 0xd, 0x19, 0x9, 0x22, 0x16,
    0x3c, 0x2a, 0xdd, 0xb, 0x7, 0x15, 0x41, 0xfe, 0xef, 0x9, 0x8, 0x24,
    0x3b, 0x15, 0xf8, 0xf, 0x1d, 0x18, 0x7, 0x3, 0xd9, 0xff, 0x15, 0xe,
    0x5, 0xe5, 0x8, 0x2, 0x1d, 0xb, 0x1c, 0xf4, 0xd7, 0x44, 0x2, 0x12,
    0x4, 0xe6, 0x33, 0x4f, 0x28, 0x44, 0x1a, 0x21, 0x1a, 0xf8, 0x34, 0x1d,
    0xca, 0x27, 0x8, 0x10, 0xf8, 0xfb, 0x29, 0xfa, 0x14, 0xef, 0x7, 0xf6,
    0x11, 0x1b, 0xfa, 0x40, 0x35, 0x8, 0x2f, 0x3a, 0x51, 0xeb, 0x21, 0x3c,
    0xec, 0xa, 0x4, 0xcf, 0x1e, 0xe0, 0xea, 0x37, 0x22, 0x10, 0x1c, 0xed,
    0x1a, 0x2a, 0x53, 0x8, 0xe3, 0x57, 0x2e, 0x9, 0xba, 0x28, 0xea, 0x3f,
    0xd9, 0xb2, 0x30, 0xf8, 0x37, 0x19, 0x35, 0x38, 0xd6, 0x25, 0xc3, 0xb7,
    0xc7, 0x50, 0x31, 0x29, 0x21, 0x51, 0xe8, 0x1d, 0x19, 0xe8, 0x18, 0x1d,
    0x17, 0x6, 0xd7, 0x33, 0x34, 0x53, 0xc, 0x16, 0x41, 0x31, 0x59, 0xf6,
    0x32, 0x1e, 0x2c, 0xf7, 0x15, 0x48, 0xde, 0xe, 0xff, 0xfe, 0xf3, 0xd4,
    0x52, 0xca, 0xe, 0x1f, 0x2b, 0xd, 0x38, 0xa, 0x42, 0x10, 0x42, 0x2e,
    0xdb, 0x2a, 0xf7, 0xe8, 0xf2, 0x48, 0x74, 0xa, 0x41, 0x22, 0x7d, 0x55,
    0x58, 0x7f, 0x2d, 0x5, 0x63, 0x15, 0x25, 0x36, 0x51, 0x1d, 0x2c, 0x28,
    0x13, 0x16, 0x26, 0x59, 0x4b, 0x48, 0x40, 0x8, 0x24, 0x3e, 0xf2, 0x4a,
    0x54, 0x29, 0x17, 0xfd, 0x37, 0x15, 0xc, 0xef, 0xf5, 0xf, 0x14, 0x28,
    0xa, 0x13, 0xd, 0xf3, 0xa, 0x1d, 0xfe, 0x1b, 0x4, 0xfa, 0xff, 0xf7,
    0xd, 0x4, 0xf7, 0xc, 0xf9, 0xf6, 0xd, 0x15, 0xe7, 0xd, 0x11, 0x10,
    0xa, 0xf5, 0xfb, 0xfd, 0xfc, 0x21, 0x32, 0x9, 0x11, 0x1e, 0x8, 0xf,
    0x24, 0x46, 0xc, 0x1c, 0xfe, 0xa, 0xfb, 0x20, 0x8, 0xf4, 0x21, 0x0,
    0x32, 0x13, 0x2c, 0x9, 0xf3, 0x15, 0xfb, 0xf6, 0xe1, 0x13, 0x18, 0x15,
    0x2d, 0x1a, 0x24, 0x1d, 0x3b, 0x10, 0x8, 0x10, 0x14, 0xef, 0x38, 0xf3,
    0x43, 0xee, 0x1e, 0x18, 0x7, 0xd, 0x9, 0xfb, 0xb, 0x2b, 0x30, 0xd,
    0xde, 0x6, 0xfc, 0xe, 0xdd, 0x1c, 0xf5, 0x13, 0xfe, 0x8, 0xb, 0xee,
    0xfd, 0xfe, 0x32, 0x0, 0x18, 0x43, 0xfb, 0x1d, 0xdf, 0x4d, 0xf1, 0xb,
    0x5, 0x7, 0x18, 0xe9, 0x17, 0x1b, 0xee, 0xfb, 0x0, 0x2, 0x50, 0x12,
    0x11, 0xc, 0xe7, 0x24, 0x13, 0xfc, 0x7, 0x20, 0x1d, 0xd, 0x1e, 0x2c,
    0x14, 0xef, 0xf7, 0x1d, 0xef, 0x1f, 0xa, 0xdd, 0x20, 0x23, 0xfd, 0xfe,
    0xe4, 0x22, 0x9, 0xe4, 0xd, 0x32, 0x7, 0x26, 0x5, 0xd, 0xea, 0x20,
    0xf6, 0x18, 0x2d, 0x13, 0x28, 0xf, 0x0, 0x2c, 0x38, 0x42, 0x3b, 0x16,
    0x1a, 0xf8, 0x6, 0xfd, 0x14, 0x27, 0xa, 0x20, 0xff, 0x4d, 0xf8, 0x0,
    0x1d, 0x7f, 0x3, 0x20, 0xd, 0x9, 0x23, 0x14, 0x14, 0x6, 0xf1, 0xf5,
    0x5, 0xf0, 0x9, 0x12, 0xc, 0xf0, 0xe5, 0x11, 0xfe, 0x17, 0x17, 0x1,
    0xd, 0x8, 0x0, 0x0, 0x7, 0x1b, 0x25, 0x3, 0x5, 0x1c, 0xfd, 0x5,
    0xd3, 0xe4, 0x1b, 0x16, 0xf0, 0xe0, 0xf5, 0x13, 0x4, 0x5, 0xff, 0xe,
    0xfd, 0x1c, 0x16, 0xc, 0xee, 0x5, 0xe8, 0xff, 0x5, 0xe8, 0x14, 0x4,
    0xe1, 0xef, 0xf1, 0xff, 0x29, 0xfb, 0x22, 0xe9, 0xf7, 0x6, 0x8, 0x0,
    0xfd, 0xb, 0xb, 0xef, 0x30, 0xf, 0x19, 0x27, 0x5, 0x6, 0xeb, 0x6,
    0x29, 0x0, 0x27, 0x18, 0xcf, 0xfb, 0xed, 0xf6, 0x27, 0xdb, 0xd6, 0xef,
    0x28, 0x1a, 0x7, 0x0, 0x35, 0x26, 0x4, 0x49, 0xe2, 0x31, 0xd8, 0x29,
    0x15, 0x13, 0x13, 0x0, 0xca, 0xf3, 0x45, 0xd8, 0x1a, 0x26, 0xff, 0x1b,
    0xa3, 0x1e, 0xc7, 0x81, 0x28, 0x25, 0xdb, 0xef, 0xc2, 0xe0, 0x0, 0x23,
    0xa3, 0xf2, 0x2e, 0x11, 0xfb, 0x1c, 0xfe, 0xa, 0x14, 0xc3, 0x27, 0xd9,
    0x13, 0xf4, 0x7, 0xe0, 0x2a, 0xba, 0xe4, 0xf3, 0xaf, 0x28, 0x37, 0xc8,
    0xe0, 0x11, 0xcc, 0x12, 0xfa, 0xc, 0xf3, 0x40, 0xda, 0x2e, 0xe4, 0x18,
    0xe9, 0x2f, 0xfe, 0x8, 0x14, 0x1f, 0xdb, 0x2, 0xeb, 0xf6, 0xee, 0xcc,
    0xdd, 0xe8, 0xf6, 0x17, 0xe2, 0xf6, 0x6, 0xb, 0x22, 0xf7, 0xf, 0xee,
    0xff, 0x2, 0xfa, 0xb, 0xdf, 0xf0, 0x1e, 0xed, 0x5, 0xda, 0xc, 0xdb,
    0xdf, 0x0, 0x12, 0xea, 0x44, 0x5e, 0x36, 0xe4, 0x21, 0xf9, 0x1c, 0x29,
    0x2a, 0x27, 0x29, 0x7a, 0x47, 0x3c, 0xb8, 0xd4, 0xc0, 0xe9, 0xf6, 0x73,
    0x48, 0xdb, 0x2a, 0xf0, 0x9, 0xf7, 0xf9, 0x20, 0xb, 0xe6, 0xcb, 0xef,
    0x7, 0xd, 0xbc, 0x26, 0xc7, 0x26, 0xcf, 0xf6, 0xf2, 0xd9, 0x3d, 0xff,
    0x26, 0xf4, 0xc, 0xf2, 0xf3, 0xef, 0x1d, 0x52, 0x36, 0xfd, 0xd7, 0x1d,
    0x15, 0xec, 0xf9, 0xe2, 0x13, 0xe3, 0x7, 0x18, 0xdb, 0xe1, 0xf8, 0xd6,
    0x4, 0x3b, 0xd3, 0xbd, 0xf9, 0x3b, 0x3c, 0x53, 0xe7, 0x3, 0xfb, 0x9e,
    0x1f, 0x46, 0x27, 0xea, 0x3e, 0xf7, 0xf0, 0xff, 0xbc, 0xbd, 0xf9, 0xee,
    0xf3, 0xfb, 0xf6, 0x15, 0x2c, 0xf7, 0xdb, 0x10, 0xff, 0x7, 0xe1, 0xd3,
    0x2b, 0x10, 0x3, 0xbc, 0xea, 0x12, 0x22, 0xdd, 0x0, 0x2d, 0xd1, 0x26,
    0x1c, 0xfb, 0xfd, 0x41, 0xed, 0x3a, 0xf7, 0xf5, 0x1a, 0x18, 0xf, 0x18,
    0x11, 0xe6, 0x17, 0x12, 0xd, 0x9, 0x34, 0xb, 0x6, 0x14, 0x7, 0x2,
    0xe, 0x18, 0xe, 0x3e, 0xf4, 0x14, 0xe7, 0xfb, 0x2f, 0xf0, 0x34, 0x26,
    0xeb, 0xe, 0xf0, 0xfd, 0xd4, 0xda, 0xb, 0xf, 0x4a, 0xed, 0x1, 0xf8,
    0x5, 0x4a, 0xf2, 0x1a, 0x30, 0xfe, 0x21, 0x28, 0x7f, 0x3d, 0x1, 0x0,
    0x47, 0x5c, 0x2f, 0xd4, 0xf1, 0xf9, 0xfe, 0xeb, 0xdf, 0xda, 0xfc, 0xfd,
    0x1c, 0xb, 0x4, 0xc, 0x3f, 0x2a, 0xe7, 0x33, 0x29, 0x7, 0x19, 0x2,
    0xf0, 0xdd, 0xa, 0xd7, 0x1b, 0x11, 0x0, 0xe, 0xb, 0xb6, 0x13, 0xa,
    0x1e, 0x0, 0xe3, 0xf6, 0x1f, 0x13, 0xf4, 0xdf, 0xb, 0x31, 0xf0, 0x7,
    0xf9, 0x26, 0x1d, 0x11, 0xe3, 0x11, 0x2b, 0x16, 0x1, 0xe1, 0x1, 0x9,
    0xf0, 0xf3, 0xf0, 0x10, 0x27, 0xf, 0x3c, 0x9, 0xf7, 0x48, 0xe7, 0xec,
    0x10, 0xf5, 0x1, 0x11, 0x1, 0xc1, 0x33, 0x3a, 0x34, 0xf9, 0xef, 0xfd,
    0x1f, 0x4, 0xf8, 0x15, 0xda, 0x2c, 0x1, 0x0, 0x38, 0xc, 0x53, 0xf9,
    0xf3, 0x1d, 0xe8, 0xde, 0x5, 0xe4, 0xf8, 0xd, 0xa9, 0xdb, 0xdb, 0xdf,
    0xcd, 0xf0, 0x24, 0xfc, 0x33, 0xec, 0x22, 0x11, 0x1f, 0xf2, 0xda, 0x3c,
    0xf1, 0x68, 0xb3, 0x41, 0x3d, 0x3b, 0xd5, 0xa, 0xb9, 0x42, 0x1e, 0x81,
    0x13, 0x23, 0x9, 0xf5, 0xf5, 0x48, 0x32, 0x95, 0x12, 0xd7, 0xc3, 0x37,
    0x1, 0x90, 0x2, 0xc8, 0xcf, 0xdc, 0x44, 0x39, 0xab, 0x15, 0x45, 0x3d,
    0x36, 0xde, 0xe4, 0x4, 0x17, 0x34, 0x13, 0xa7, 0x3e, 0xcb, 0x2e, 0x9,
    0xe1, 0xf9, 0xd9, 0xcc, 0x0, 0x74, 0xb0, 0x9, 0x27, 0x12, 0x56, 0xc,
    0x1f, 0xeb, 0xc4, 0x1a, 0xeb, 0x31, 0xc2, 0x38, 0x1d, 0xe6, 0xdd, 0xf8,
    0xb, 0x13, 0xdd, 0xca, 0xb0, 0xfd, 0xf, 0xe7, 0xe, 0xf7, 0xb5, 0x29,
    0x25, 0xe, 0x5d, 0xfa, 0xf2, 0x58, 0xc, 0x24, 0xea, 0x2c, 0x13, 0xdf,
    0xef, 0x3f, 0x15, 0xc0, 0xbc, 0xea, 0xe, 0xd7, 0xe2, 0x14, 0x5, 0x19,
    0xce, 0xd8, 0xc2, 0xe, 0x15, 0x16, 0x9, 0xab, 0xef, 0xc8, 0xf6, 0xde,
    0x1d, 0x2, 0x20, 0x11, 0xf8, 0x23, 0xc8, 0x11, 0xf9, 0xe5, 0xee, 0xf4,
    0xf0, 0xf1, 0xe9, 0xf4, 0x20, 0x3, 0x2c, 0x7, 0xdb, 0xc1, 0xc3, 0xc5,
    0xbf, 0x10, 0x10, 0xe8, 0xf1, 0x11, 0xea, 0xf7, 0x3, 0xc8, 0xbc, 0x9f,
    0xda, 0xf2, 0xb, 0xeb, 0xf1, 0xd5, 0x4, 0x1f, 0x12, 0xd5, 0xa, 0xa,
    0x20, 0x25, 0xaa, 0x17, 0xce, 0xa0, 0xf9, 0xd1, 0xf6, 0xdf, 0xc7, 0xc8,
    0xcd, 0x4, 0xee, 0xe7, 0x5, 0xdc, 0x8, 0xcd, 0x81, 0xc8, 0xb1, 0xd,
    0xfd, 0xc5, 0xd2, 0x16, 0x24, 0x1e, 0xad, 0xed, 0x9, 0x1, 0xff, 0xe8,
    0x18, 0x6, 0x1, 0x1c, 0x5, 0xfb, 0xe1, 0xe2, 0x10, 0x7, 0xdf, 0xbf,
    0xde, 0x14, 0xf1, 0xae, 0xe8, 0x1a, 0x6, 0xfa, 0xe3, 0xe, 0xf5, 0xeb,
    0xd2, 0x1, 0xee, 0x2c, 0x8, 0xdc, 0xd8, 0xfa, 0x10, 0x21, 0xb, 0x4,
    0x1e, 0x5, 0xf6, 0xe6, 0xd3, 0xe7, 0x6, 0xf2, 0x1a, 0x13, 0xfb, 0x23,
    0x1, 0x6, 0xf, 0xf4, 0xea, 0xc, 0x9, 0xf5, 0xe8, 0xef, 0x3e, 0x1c,
    0xb1, 0xe5, 0xd5, 0x1b, 0xcc, 0xe7, 0x12, 0xc8, 0x1c, 0xeb, 0xfb, 0xf9,
    0xcd, 0xff, 0xfc, 0x3, 0xe4, 0x2, 0x16, 0x13, 0xe3, 0xfc, 0xe2, 0x4,
    0x3, 0xd0, 0xf1, 0x2, 0x11, 0xe0, 0xea, 0xf3, 0xdc, 0xf2, 0x30, 0xe9,
    0xf3, 0xd3, 0xf0, 0x1a, 0xe8, 0xf, 0xc, 0xb, 0xe2, 0xe5, 0xe2, 0xd3,
    0x15, 0xa, 0x7, 0xa7, 0xfd, 0xf2, 0x14, 0xe5, 0xe4, 0xe6, 0xcd, 0xb,
    0x26, 0x2e, 0xb2, 0xe1, 0x2c, 0xdd, 0xd3, 0xe, 0xe5, 0x12, 0xe3, 0x2,
    0x2a, 0xb, 0xf6, 0xea, 0xa, 0xe2, 0xf1, 0xbc, 0xee, 0x16, 0x23, 0x7,
    0xf4, 0x16, 0xd4, 0xde, 0xe3, 0xe1, 0xa0, 0x23, 0x16, 0x16, 0x5b, 0x1e,
    0x25, 0xcc, 0xd7, 0x1, 0xfc, 0x97, 0xed, 0x44, 0xe0, 0xf, 0xba, 0xd,
    0xf9, 0xe6, 0xbc, 0xee, 0xce, 0x1f, 0xda, 0xf6, 0x7, 0xcf, 0xd, 0xa6,
    0xb1, 0x26, 0xdb, 0x1, 0x8, 0x28, 0x81, 0xab, 0xf8, 0xfd, 0x4, 0x9,
    0xe7, 0x0, 0xe9, 0xf1, 0x14, 0x11, 0x25, 0x2a, 0xc0, 0xea, 0xe2, 0x16,
    0xfc, 0xf5, 0xea, 0xd9, 0xed, 0x3f, 0x8, 0xec, 0xc0, 0x11, 0xc, 0xec,
    0x18, 0x5, 0xdb, 0xd, 0x31, 0xf4, 0xee, 0xa1, 0xc0, 0x1d, 0xf, 0xee,
    0x0, 0x23, 0xfc, 0x1, 0xdd, 0xe8, 0xfe, 0x1f, 0xe5, 0x0, 0x3e, 0x16,
    0xc9, 0x1f, 0xcb, 0xe0, 0xf5, 0xf0, 0xc9, 0xe1, 0x16, 0xfa, 0x3, 0xcb,
    0x8, 0xe1, 0x3, 0xfd, 0xb, 0x31, 0xeb, 0xf4, 0xf4, 0x1b, 0xff, 0xed,
    0xe9, 0xd9, 0x2f, 0x14, 0x17, 0xe2, 0x16, 0x9, 0x22, 0x27, 0xe9, 0xe4,
    0xe, 0xd6, 0xf8, 0x4, 0xcf, 0x15, 0xf9, 0xdf, 0x13, 0xf5, 0xf2, 0xf3,
    0xce, 0xb9, 0xdd, 0xf4, 0xb3, 0xd8, 0xea, 0xf9, 0x1e, 0xee, 0xd9, 0xdc,
    0x7f, 0x53, 0x32, 0xe, 0x2c, 0x1a, 0x2e, 0xfd, 0xfe, 0xa, 0x40, 0x19,
    0x27, 0x15, 0xf, 0xf, 0x1b, 0xf4, 0xda, 0x5e, 0x5, 0x2, 0x20, 0x22,
    0x29, 0x9, 0xfd, 0x22, 0xf6, 0xb, 0x3f, 0x9, 0xfc, 0x21, 0x7, 0x27,
    0x0, 0x0, 0x12, 0x33, 0xf8, 0xf2, 0x4, 0x29, 0x2e, 0xe7, 0x1d, 0x40,
    0x44, 0x14, 0x42, 0x32, 0x9, 0xeb, 0x19, 0xea, 0xd4, 0x14, 0xe1, 0x2,
    0x6, 0x2f, 0xe0, 0x0, 0x2c, 0xfa, 0xf4, 0xe, 0x2, 0x26, 0xe9, 0x23,
    0x14, 0x2, 0x1c, 0x26, 0x40, 0x28, 0x29, 0x14, 0x15, 0x4, 0xf9, 0xf8,
    0x2e, 0x2b, 0x37, 0x3b, 0xd, 0x2b, 0x27, 0x16, 0x41, 0xfa, 0x4c, 0xea,
    0xed, 0xc, 0x1a, 0xf2, 0x0, 0x28, 0xd4, 0x10, 0xf2, 0xd6, 0x1d, 0x6,
    0x13, 0x1f, 0xf8, 0x26, 0xf0, 0x35, 0xea, 0x16, 0xf0, 0x2a, 0x1d, 0x4e,
    0xb, 0xfd, 0x5, 0x7, 0x41, 0xd1, 0x2c, 0xe8, 0x2e, 0xe0, 0x55, 0x12,
    0x4c, 0xa, 0xf7, 0xed, 0x3d, 0x37, 0x37, 0x48, 0x51, 0xc7, 0x2e, 0xf7,
    0x10, 0x2b, 0xfc, 0x0, 0x2a, 0x35, 0x37, 0x2, 0x39, 0xe8, 0x8, 0x1c,
    0x5, 0x52, 0xe, 0x16, 0xf, 0xfd, 0x3c, 0x8, 0x33, 0xe0, 0x7, 0x18,
    0xff, 0x19, 0x1d, 0x28, 0x52, 0x3a, 0x28, 0x1c, 0x39, 0x58, 0x39, 0x2c,
    0x6c, 0x34, 0x3b, 0x45, 0x28, 0x31, 0xa, 0x47, 0x0, 0x5b, 0x2c, 0x13,
    0x2c, 0x4b, 0x10, 0x48, 0x21, 0x51, 0x13, 0x18, 0xfe, 0x0, 0xfc, 0x5,
    0xfb, 0xdb, 0xef, 0xec, 0x12, 0xba, 0x1c, 0xf8, 0xfc, 0xe, 0x2, 0x1,
    0x2, 0x30, 0x9, 0xa, 0x5, 0xf7, 0x20, 0xdc, 0x1, 0x1, 0x18, 0x4,
    0xa, 0xe4, 0xcb, 0x8, 0xf2, 0xf8, 0xf6, 0x36, 0x9, 0xfc, 0x3c, 0xec,
    0xe8, 0x29, 0x16, 0xff, 0xf9, 0x18, 0xd9, 0x14, 0xf5, 0xe, 0xf1, 0x1f,
    0x5, 0x19, 0x2b, 0x2a, 0xfb, 0xe0, 0xda, 0xf2, 0xd9, 0x16, 0x16, 0xe9,
    0x11, 0x1d, 0x27, 0x15, 0x1b, 0x7, 0x1e, 0x5, 0x30, 0xc, 0xff, 0xff,
    0xfc, 0x2, 0x23, 0x10, 0xd8, 0xc1, 0xfd, 0xec, 0xf6, 0xf3, 0x12, 0xd7,
    0x8, 0xfb, 0x22, 0x23, 0x28, 0xdb, 0xf6, 0x10, 0xec, 0xf7, 0x1b, 0x17,
    0x39, 0xf4, 0x4, 0xe6, 0xe9, 0x25, 0xa7, 0xf4, 0x11, 0x0, 0xd3, 0xe7,
    0x43, 0x81, 0x15, 0x3, 0x47, 0xbe, 0x4, 0x7, 0xe3, 0xac, 0xcb, 0xdd,
    0x7, 0xf5, 0x38, 0x41, 0x13, 0x11, 0x3c, 0xfb, 0x1d, 0x34, 0x36, 0xff,
    0xd3, 0x10, 0xdd, 0x5, 0xca, 0xe, 0xc4, 0xdc, 0x3, 0xf1, 0xcc, 0xf,
    0xf7, 0x52, 0xef, 0xdd, 0x17, 0x38, 0x18, 0x26, 0xe, 0xf7, 0xe0, 0xf4,
    0xfd, 0x36, 0x8, 0x22, 0x0, 0xf7, 0xf2, 0xb, 0x14, 0xfb, 0xf3, 0xf5,
    0xe4, 0x3, 0x14, 0x18, 0x6, 0x17, 0xfd, 0x18, 0x0, 0x21, 0x1a, 0x21,
    0x2e, 0x1a, 0x0, 0xff, 0xd4, 0x24, 0x32, 0xec, 0xfd, 0x15, 0xf7, 0xe1,
    0xed, 0xeb, 0x5, 0xef, 0xf4, 0xe6, 0xb4, 0xe4, 0xdc, 0xb1, 0x34, 0x1c,
    0xf1, 0xd1, 0x3d, 0x14, 0xd6, 0xd5, 0xd, 0xf7, 0x49, 0xc8, 0xf0, 0xef,
    0xf1, 0xbd, 0xdc, 0xf9, 0xc9, 0x5, 0xd3, 0x31, 0xe4, 0xfd, 0x2a, 0xd8,
    0x2, 0xef, 0xc1, 0x0, 0xda, 0x11, 0xd8, 0xe5, 0x2a, 0xf9, 0xb8, 0xe7,
    0xac, 0xfe, 0x7, 0xa, 0xa5, 0xee, 0x91, 0xed, 0xfa, 0x14, 0x41, 0x85,
    0xc9, 0xc8, 0xc, 0x13, 0x21, 0xdc, 0x1e, 0xb5, 0x5, 0x19, 0xde, 0xc9,
    0xcb, 0x16, 0x7, 0xef, 0x2f, 0xb4, 0x8, 0x3, 0xfd, 0xda, 0xff, 0x27,
    0xfe, 0xe4, 0xfc, 0x3c, 0x53, 0x30, 0x49, 0xc9, 0x27, 0xda, 0xbb, 0x1f,
    0xd5, 0x1f, 0xd6, 0xe2, 0xd, 0xe7, 0x0, 0x24, 0xd0, 0xd7, 0x14, 0x39,
    0xcc, 0xc7, 0x12, 0xfe, 0x1d, 0x11, 0xe3, 0xeb, 0xb2, 0xec, 0xe4, 0x5,
    0xca, 0xf2, 0x1d, 0x1c, 0xf0, 0x1, 0xf4, 0x2d, 0xfe, 0xc9, 0xfa, 0xe,
    0x4e, 0xed, 0xd8, 0x6, 0x12, 0x26, 0xed, 0xc3, 0x64, 0xe1, 0x3e, 0x1,
    0x1b, 0xcf, 0x31, 0xde, 0x63, 0xf2, 0x4f, 0xc, 0xe9, 0xca, 0xd0, 0xc1,
    0xcd, 0xe6, 0xe3, 0xaa, 0x2e, 0x23, 0x1b, 0x29, 0xa6, 0xa, 0x2b, 0xfc,
    0xd, 0xec, 0x11, 0xe6, 0x1c, 0xf5, 0xef, 0xfc, 0xf6, 0xea, 0xbf, 0xad,
    0xda, 0xce, 0xe0, 0x24, 0xf0, 0xe, 0xf, 0xea, 0xe8, 0xc9, 0xb7, 0x5,
    0x11, 0xbb, 0xd0, 0xc7, 0xb6, 0x81, 0x2b, 0xd7, 0xd9, 0x22, 0x2, 0xe6,
    0xeb, 0xd, 0xaa, 0xc1, 0xc5, 0xdb, 0xc, 0xaf, 0xfc, 0x33, 0x1c, 0xd7,
    0x3c, 0x81, 0xe6, 0x8d, 0x43, 0xe1, 0xe0, 0x2b, 0xf4, 0xc5, 0xda, 0xe2,
    0xf8, 0xde, 0x9d, 0xc0, 0xa, 0xc3, 0x9, 0xbc, 0xd3, 0x10, 0x37, 0x1b,
    0xf3, 0xf2, 0xb0, 0xba, 0xd1, 0x17, 0xf0, 0xe2, 0x21, 0xfc, 0xb5, 0xc3,
    0xcf, 0x8a, 0xfe, 0x3, 0xea, 0xfc, 0xb6, 0x53, 0xd9, 0xa8, 0xbd, 0xb9,
    0xe7, 0xcf, 0xe4, 0x22, 0xd6, 0xf5, 0xa9, 0xdc, 0xd3, 0xd8, 0xbf, 0xa,
    0x11, 0xb4, 0x19, 0x55, 0xaf, 0x15, 0x45, 0xb3, 0x6a, 0x24, 0x7, 0xb,
    0xca, 0xfe, 0xcc, 0x15, 0xe9, 0xec, 0xe7, 0x9, 0xef, 0xe8, 0xac, 0xdf,
    0xe9, 0xde, 0xf3, 0xce, 0x20, 0x19, 0xee, 0x9, 0x52, 0x6, 0xeb, 0xf0,
    0xf9, 0x14, 0xde, 0xdf, 0xff, 0x2, 0xde, 0xeb, 0xa, 0xd3, 0xeb, 0xc,
    0xf7, 0xf7, 0x39, 0x3, 0x8, 0xfe, 0xd4, 0xe6, 0x18, 0xdc, 0xe1, 0xf4,
    0xcf, 0xf8, 0x16, 0xd8, 0x6, 0xdc, 0xde, 0xea, 0xf5, 0xed, 0xbd, 0xde,
    0xe3, 0xf5, 0xe6, 0xf5, 0xe5, 0x5, 0x24, 0xd3, 0x6, 0x19, 0x10, 0xe0,
    0xd9, 0x2c, 0x2c, 0x22, 0x13, 0xda, 0x36, 0xde, 0xfb, 0x15, 0x15, 0xef,
    0x17, 0x11, 0x5, 0xe, 0x15, 0x2, 0x19, 0xe8, 0xf9, 0xfa, 0xe, 0x16,
    0xef, 0xcf, 0xf5, 0xe6, 0xe4, 0xc0, 0xb5, 0xb6, 0x3b, 0xe8, 0x5, 0xff,
    0xd5, 0xd3, 0xd7, 0xd1, 0xf2, 0xd3, 0xf3, 0xd7, 0xc5, 0xec, 0xeb, 0xde,
    0x5, 0x2, 0xdf, 0xfe, 0x2b, 0xd3, 0xfe, 0x29, 0xec, 0x1e, 0xea, 0xf7,
    0xf1, 0x3, 0x25, 0xc, 0xef, 0x1b, 0x20, 0x13, 0x23, 0x2, 0x42, 0x0,
    0x7, 0x15, 0xe, 0x2c, 0xfb, 0xd9, 0x20, 0xc, 0xb, 0xeb, 0x2b, 0x3,
    0xfe, 0x25, 0x22, 0xf5, 0x4, 0x3d, 0xbb, 0xd, 0x21, 0x50, 0xf8, 0x3a,
    0xfc, 0x14, 0x37, 0x59, 0xeb, 0x19, 0xe7, 0xf8, 0xf3, 0x20, 0x7, 0xef,
    0xf, 0x25, 0xf6, 0xff, 0x42, 0x23, 0x27, 0xf2, 0x1d, 0x1b, 0x5, 0xfe,
    0xd6, 0xdc, 0xfc, 0xf, 0xe6, 0xba, 0xc3, 0x1a, 0xd9, 0xfc, 0x33, 0xd,
    0x26, 0x1b, 0x24, 0x15, 0x3f, 0xfc, 0xfb, 0x2e, 0x0, 0x3f, 0xe9, 0x0,
    0x32, 0xf7, 0xc9, 0x3, 0xcc, 0x2a, 0x13, 0xd4, 0xc7, 0x18, 0xd4, 0xc6,
    0xb2, 0xd, 0xe4, 0xfa, 0x16, 0xe4, 0xe2, 0xcd, 0xc, 0x9d, 0x33, 0xa8,
    0xcb, 0xe9, 0x64, 0x1, 0xcb, 0x1d, 0x2c, 0xe7, 0x2f, 0xf4, 0x0, 0x2f,
    0x0, 0x8, 0xb3, 0xbc, 0x15, 0xc0, 0x1c, 0x30, 0x12, 0xba, 0xc7, 0x3c,
    0xe9, 0x47, 0xea, 0xcf, 0xe3, 0x13, 0xfc, 0x1b, 0xea, 0x2f, 0xfe, 0xc3,
    0xc3, 0xf, 0x9, 0xe, 0xfc, 0xcf, 0xbd, 0xcc, 0xed, 0xe5, 0xef, 0xb5,
    0xd2, 0xd, 0x1f, 0x19, 0xd3, 0x17, 0xe1, 0xf, 0x1a, 0x3, 0x7f, 0x2f,
    0x14, 0x61, 0x44, 0x37, 0xeb, 0x25, 0x4a, 0xf0, 0xe5, 0x19, 0x20, 0xc6,
    0x2, 0x43, 0x1b, 0xf5, 0xe5, 0xed, 0xf8, 0x5, 0xea, 0xf9, 0xe7, 0xe9,
    0xff, 0xeb, 0xf8, 0x10, 0xe2, 0x31, 0xf5, 0xe1, 0x9, 0xc, 0xf4, 0xee,
    0xf0, 0x31, 0xfe, 0x27, 0x1f, 0x30, 0xfd, 0x0, 0xc2, 0xff, 0x5, 0x1d,
    0x1a, 0xe1, 0xe9, 0x1f, 0x4, 0xf2, 0x13, 0x7, 0xb1, 0x33, 0xcc, 0xcc,
    0xe8, 0x1f, 0xd1, 0xea, 0xf0, 0x5, 0x18, 0x15, 0xe5, 0xbe, 0x1b, 0x8,
    0x1, 0xfe, 0xe0, 0x4, 0x14, 0xf5, 0xc, 0xe2, 0xe8, 0x4c, 0x17, 0xd4,
    0xe6, 0xfb, 0xe, 0x11, 0xf, 0xd1, 0x1, 0xc5, 0xfc, 0x0, 0xe9, 0x38,
    0xd6, 0xe9, 0x32, 0x0, 0x34, 0xe8, 0x22, 0x30, 0x19, 0xfa, 0xf5, 0x3e,
    0x36, 0x6e, 0x47, 0x24, 0x99, 0x66, 0x1, 0x40, 0xa4, 0x5b, 0xd0, 0x18,
    0xe2, 0xcf, 0x45, 0xe6, 0x3b, 0x63, 0x27, 0xe3, 0x5, 0x49, 0xf4, 0xc5,
    0x60, 0x2a, 0xe6, 0xda, 0xe9, 0xb, 0xed, 0xea, 0xb0, 0xab, 0x23, 0x8,
    0xcf, 0x1c, 0xf1, 0x9, 0x7f, 0x2, 0xdf, 0xb3, 0x4b, 0xde, 0x17, 0xa8,
    0x75, 0xc4, 0xe8, 0xa9, 0x1f, 0x5f, 0xfd, 0xd7, 0xd5, 0x1, 0xb9, 0xfc,
    0x27, 0xb5, 0x1a, 0x38, 0xd7, 0xe6, 0xdc, 0xfe, 0xca, 0x8, 0x1f, 0xfe,
    0xbe, 0xec, 0x3a, 0xb6, 0xb0, 0xd7, 0x34, 0xc0, 0xe1, 0xe0, 0x1e, 0x64,
    0x18, 0xda, 0xd5, 0x23, 0x31, 0x6, 0x35, 0xdc, 0xea, 0x17, 0x49, 0x64,
    0xef, 0x37, 0x14, 0xd4, 0x19, 0xd0, 0x13, 0xe8, 0xd6, 0xcd, 0x18, 0xf6,
    0xca, 0xd7, 0xdc, 0xd1, 0xc6, 0x2d, 0x1b, 0xad, 0xfe, 0xe8, 0xe2, 0x19,
    0xfe, 0xd9, 0xd9, 0xe3, 0xb1, 0xe5, 0xde, 0x11, 0xc1, 0xf0, 0x37, 0xfc,
    0xf9, 0x8f, 0x11, 0xa, 0x1d, 0x42, 0xf2, 0xdb, 0xf6, 0xfb, 0xaf, 0x2,
    0xb9, 0xb4, 0xdc, 0xcb, 0xc0, 0xb8, 0xc8, 0x37, 0xe9, 0x12, 0xf1, 0xda,
    0xfb, 0x9e, 0x57, 0xf9, 0x17, 0x6e, 0xfd, 0x1, 0x15, 0x9, 0xf4, 0x7,
    0x24, 0x7, 0x82, 0x3a, 0xe9, 0x28, 0xd1, 0x1d, 0x41, 0xd6, 0x39, 0xd6,
    0xd, 0x58, 0x33, 0x24, 0x23, 0x2c, 0x28, 0xde, 0xd7, 0x1f, 0x85, 0x28,
    0x81, 0xdd, 0x2d, 0xcd, 0xa5, 0xf2, 0xf4, 0xc, 0xa7, 0x29, 0xc0, 0xed,
    0x38, 0xe1, 0xfe, 0x29, 0xe7, 0x14, 0xeb, 0xd8, 0xc1, 0xc2, 0xde, 0x35,
    0xe8, 0x20, 0xea, 0xce, 0xf9, 0xe7, 0xed, 0xc0, 0xea, 0xdb, 0x20, 0xf8,
    0x2c, 0xfb, 0x64, 0xeb, 0xd7, 0x29, 0xcd, 0x3, 0xd5, 0xbb, 0xda, 0xe0,
    0xfd, 0xe4, 0xb, 0x30, 0xd0, 0x1b, 0x2e, 0xcf, 0xb8, 0xdf, 0xa9, 0x5,
    0xee, 0xff, 0x1e, 0xe5, 0x49, 0xec, 0x23, 0xb6, 0x1d, 0x26, 0x35, 0xc0,
    0xae, 0xff, 0x35, 0x46, 0x16, 0xdc, 0xe4, 0x17, 0xc, 0x28, 0x2e, 0x18,
    0x0, 0xf5, 0xbc, 0xf8, 0x23, 0xc9, 0xbf, 0xe2, 0xf3, 0xdc, 0xfd, 0x6,
    0xd2, 0xd0, 0xb9, 0x9, 0xeb, 0xc4, 0x1e, 0xf9, 0xf1, 0xb0, 0xe7, 0x26,
    0xc9, 0xdc, 0xbe, 0xd, 0x45, 0xe3, 0xcb, 0xf9, 0x45, 0x7, 0x3f, 0x11,
    0x16, 0x7, 0x29, 0x7, 0x9, 0xf1, 0xfa, 0x11, 0x11, 0x2a, 0x13, 0xfd,
    0x1b, 0x1a, 0x12, 0xb, 0x11, 0x2b, 0x1d, 0x16, 0xf, 0xfe, 0xfc, 0x1b,
    0x3, 0xda, 0xf3, 0x1f, 0xfe, 0x3, 0xb, 0x19, 0x22, 0xf, 0x15, 0xa,
    0x6, 0x10, 0x3c, 0x1c, 0xfd, 0x0, 0x6, 0x18, 0x3, 0x33, 0xe, 0x15,
    0x17, 0x12, 0x1d, 0x1f, 0xe8, 0x21, 0xa, 0x1, 0x4, 0x13, 0x19, 0x9,
    0xf4, 0x37, 0xfd, 0x4, 0x0, 0x13, 0x10, 0xfb, 0x2, 0x1f, 0x11, 0x23,
    0x2b, 0x7, 0x32, 0x29, 0xfd, 0xdf, 0x30, 0xfd, 0x15, 0xf6, 0x10, 0x18,
    0x27, 0x27, 0x4b, 0x24, 0x24, 0x26, 0x21, 0x42, 0xf, 0x2d, 0x12, 0x25,
    0xc, 0x22, 0x2e, 0xf, 0x26, 0x10, 0xf1, 0x16, 0x17, 0x1, 0x10, 0x2,
    0xe8, 0xdd, 0x13, 0x8, 0xee, 0xf, 0x0, 0x6, 0x39, 0xe7, 0xde, 0xe2,
    0x15, 0x4c, 0x10, 0xc, 0x4, 0xce, 0x1e, 0x52, 0x15, 0x11, 0x34, 0x35,
    0x1d, 0xc, 0xb8, 0x25, 0xfd, 0xfe, 0x4, 0x2d, 0xeb, 0xeb, 0xc3, 0x8,
    0xf3, 0xf1, 0x3, 0xcd, 0x13, 0xa, 0xa, 0xee, 0xed, 0x54, 0xe2, 0x4,
    0x6, 0x34, 0x3, 0x2c, 0xfb, 0xfd, 0xf5, 0xeb, 0xf1, 0xf2, 0x1e, 0x15,
    0x2f, 0x5, 0x1c, 0x31, 0x37, 0x40, 0x3e, 0x12, 0x1e, 0xb, 0x4b, 0x23,
    0x5d, 0x41, 0x42, 0x23, 0x18, 0x7f, 0x14, 0x19, 0xe1, 0x64, 0x7, 0x14,
    0x1d, 0x28, 0x18, 0x21, 0xf6, 0xf6, 0xf4, 0xeb, 0x2d, 0x8, 0x1f, 0xa,
    0xff, 0xe, 0xe3, 0x15, 0xe2, 0xeb, 0xf1, 0xda, 0xe0, 0xe1, 0x6, 0xe5,
    0xe2, 0x29, 0xee, 0x1a, 0xd, 0x44, 0x42, 0x16, 0xe0, 0xee, 0x1c, 0x3d,
    0x8, 0x1a, 0xa, 0xee, 0x1b, 0xeb, 0x2d, 0x13, 0xf, 0x9, 0x20, 0xf7,
    0xf0, 0x1, 0xd9, 0xf0, 0x21, 0xcc, 0xf9, 0xdb, 0xea, 0xd1, 0x18, 0x39,
    0x37, 0xf1, 0xd, 0xc2, 0xa, 0xcc, 0xed, 0x38, 0xdc, 0x2e, 0xdb, 0xf7,
    0x2, 0x7, 0xfe, 0xd9, 0xec, 0x4d, 0xfd, 0xd7, 0xfb, 0xfd, 0x1d, 0x16,
    0x99, 0xa7, 0xe5, 0x3, 0xf0, 0xb8, 0xe8, 0xe7, 0x15, 0xd4, 0xf7, 0xf4,
    0xff, 0x15, 0xd8, 0x53, 0xfb, 0x19, 0xdc, 0x31, 0xb, 0xf, 0x98, 0x0,
    0xc4, 0x22, 0xf, 0xd3, 0x84, 0x1a, 0xe, 0x3, 0x6a, 0x11, 0xed, 0x90,
    0x5, 0xfc, 0xd6, 0xf9, 0x95, 0xf3, 0xd4, 0xf7, 0xba, 0xfd, 0x26, 0x58,
    0xc3, 0x15, 0x25, 0xe, 0x65, 0x4, 0x1b, 0xf5, 0x1d, 0x91, 0x30, 0x1d,
    0xdf, 0xdb, 0xc9, 0xf8, 0x2f, 0xc4, 0x29, 0x2b, 0xf9, 0x46, 0x2a, 0xf7,
    0x12, 0x4b, 0xf2, 0xee, 0x5, 0x41, 0x2e, 0x5, 0x81, 0x3d, 0xc7, 0x58,
    0xe1, 0xf3, 0x1, 0xe0, 0x7, 0x19, 0xd, 0xe7, 0xb2, 0xd7, 0x15, 0x1b,
    0xe0, 0x22, 0xf5, 0xf, 0xed, 0x23, 0x3c, 0x16, 0x29, 0x33, 0x32, 0x0,
    0x3, 0xef, 0x1e, 0xb8, 0xf0, 0xbd, 0xb, 0xeb, 0x2c, 0xeb, 0xff, 0xee,
    0x7, 0xdb, 0x4, 0x1f, 0xf5, 0xfd, 0xe3, 0xcf, 0x11, 0xbd, 0x1, 0xeb,
    0xe7, 0x2a, 0xe8, 0xc3, 0x7, 0x37, 0x1, 0xdd, 0xe2, 0x2b, 0xf2, 0xee,
    0xbf, 0xd4, 0x9, 0x1a, 0xf5, 0xdb, 0xde, 0x3, 0xf0, 0xed, 0xf, 0xda,
    0xb, 0xf9, 0x43, 0x13, 0x14, 0xf1, 0xa, 0xd8, 0xd4, 0x23, 0x1, 0xf6,
    0x30, 0x1d, 0xf6, 0x47, 0x23, 0x4, 0x34, 0x16, 0xcd, 0x43, 0xfb, 0xfa,
    0x4, 0xeb, 0x28, 0xc4, 0xf7, 0xe8, 0x5, 0x1e, 0x14, 0xfa, 0x1c, 0x11,
    0xfe, 0xd3, 0x8, 0xe0, 0xf5, 0xe0, 0x82, 0x39, 0xcb, 0xdc, 0x13, 0x18,
    0xf3, 0x1b, 0x4, 0x4d, 0x21, 0x6, 0x10, 0xc, 0x23, 0x3c, 0x11, 0x23,
    0xea, 0x3a, 0x15, 0x46, 0xd3, 0xfc, 0xe5, 0x2a, 0xd3, 0x9e, 0x50, 0xb5,
    0x19, 0x27, 0xe0, 0xe, 0xac, 0x47, 0x4, 0x83, 0x1c, 0x31, 0x26, 0x32,
    0x9a, 0x93, 0xaf, 0x23, 0xf3, 0xdd, 0x72, 0x3, 0xff, 0xf, 0x2a, 0x1c,
    0x4b, 0x5a, 0x27, 0x2b, 0x48, 0x17, 0xdf, 0xff, 0xc8, 0x13, 0xe7, 0x26,
    0xa3, 0xce, 0x26, 0x98, 0x12, 0xdf, 0x81, 0xe2, 0xfe, 0x15, 0xf8, 0x30,
    0xfc, 0xda, 0xcb, 0x5c, 0x1a, 0x3f, 0xbf, 0x31, 0x3, 0xeb, 0xad, 0xba,
    0x11, 0xe3, 0xea, 0xdc, 0x9e, 0x8, 0xd2, 0x32, 0xec, 0xf5, 0xe2, 0x24,
    0x1a, 0x16, 0x4d, 0xe4, 0x6, 0x2, 0x9, 0x5, 0xe8, 0x34, 0xf2, 0xb,
    0xfa, 0xf8, 0xb, 0x23, 0xd6, 0x98, 0xf, 0xc2, 0xeb, 0x17, 0xd4, 0x6,
    0xe, 0xdd, 0x40, 0xd, 0xd5, 0xe1, 0xfa, 0xcd, 0xe6, 0xef, 0x9, 0x25,
    0xfb, 0xed, 0x10, 0xff, 0x54, 0xe5, 0x1f, 0x8, 0x35, 0x1c, 0x20, 0x18,
    0x19, 0xf5, 0x28, 0x4, 0x44, 0xfc, 0xe, 0x17, 0xbc, 0xd8, 0xce, 0xb8,
    0x8, 0xe7, 0xef, 0xc7, 0x4a, 0x25, 0x13, 0xb, 0xe9, 0xff, 0x1a, 0xe,
    0xda, 0xf9, 0xe8, 0xe9, 0x96, 0x81, 0xd0, 0xe8, 0x18, 0xe8, 0x26, 0x30,
    0x28, 0x6, 0x28, 0xe7, 0xd6, 0xa4, 0xc1, 0x11, 0x19, 0xc2, 0x51, 0x1e,
    0xcc, 0xfa, 0x48, 0xb7, 0x1c, 0x3, 0x1a, 0x2, 0xe, 0x14, 0xc7, 0x5,
    0x28, 0x3, 0xce, 0xd8, 0xe4, 0x1b, 0xcf, 0xba, 0xe0, 0x9, 0xf2, 0xde,
    0xf7, 0x31, 0xb, 0xf5, 0x32, 0x1a, 0xf7, 0xc, 0xd6, 0x4, 0x0, 0xea,
    0xf9, 0x19, 0xe6, 0x1, 0xfe, 0xde, 0xef, 0x2a, 0xf4, 0x10, 0xfd, 0x6,
    0x8, 0x6, 0xec, 0xc8, 0x1f, 0xe5, 0xed, 0xf4, 0xe2, 0xa, 0x1e, 0xff,
    0xfa, 0xf1, 0xf8, 0xd6, 0xea, 0xed, 0xe0, 0xdf, 0xdf, 0xef, 0xf2, 0x3,
    0xfe, 0x14, 0x2a, 0x6, 0x25, 0x12, 0xfc, 0xfa, 0xe, 0xfa, 0x12, 0x29,
    0xe, 0xbc, 0x8, 0xef, 0x5, 0xf, 0xf, 0x20, 0xd, 0xfe, 0x4, 0x7,
    0x11, 0xe5, 0x3, 0xde, 0xfb, 0xf1, 0x9, 0xe9, 0xd5, 0xec, 0x5, 0x14,
    0xd9, 0xc1, 0x31, 0x15, 0x16, 0xf5, 0xe4, 0xf6, 0xf3, 0xce, 0xde, 0xdc,
    0xd9, 0xc3, 0xd3, 0xd4, 0xf0, 0xe8, 0xb3, 0xd7, 0xe2, 0xcc, 0xc7, 0x6,
    0x7, 0xcb, 0xfd, 0xd2, 0x12, 0xab, 0x1c, 0xb0, 0x11, 0xcd, 0xea, 0x12,
    0x6, 0xe0, 0xdd, 0xfc, 0xdf, 0x1a, 0xe2, 0xf8, 0xa, 0xdc, 0xe6, 0x98,
    0x1, 0x20, 0xe1, 0xba, 0xd1, 0xe1, 0xb0, 0xfe, 0x27, 0xf2, 0x2c, 0xcf,
    0xc7, 0xf5, 0x8, 0xd, 0xc2, 0xda, 0xaa, 0x3, 0x2d, 0x32, 0x73, 0xd1,
    0x4, 0xdf, 0xd2, 0x14, 0x52, 0xd8, 0xb8, 0xf0, 0xf8, 0xff, 0xd9, 0xf0,
    0xf5, 0x20, 0xf6, 0xd5, 0xf4, 0xfd, 0xe8, 0xe1, 0x3, 0xe4, 0xd, 0x81,
    0x1b, 0x29, 0xcd, 0xe7, 0xa, 0x9, 0xc3, 0xbb, 0xd0, 0xdf, 0xd3, 0xe1,
    0xd9, 0x22, 0xf2, 0x5, 0xec, 0xb, 0xed, 0x4, 0x20, 0xd8, 0x3, 0xd8,
    0xe0, 0x7, 0xf7, 0xf4, 0xf8, 0x2e, 0x11, 0xa, 0xed, 0x23, 0x7, 0xf4,
    0xef, 0xf3, 0x12, 0xf, 0xed, 0x18, 0x23, 0xe8, 0xff, 0x17, 0xf6, 0xf,
    0x18, 0x13, 0xc5, 0x1, 0xf1, 0xd, 0xf9, 0x25, 0x9, 0xf6, 0x2e, 0x24,
    0x4, 0x9, 0xf0, 0xf8, 0x1a, 0x2, 0x10, 0xe, 0x17, 0xfb, 0xf1, 0xe2,
    0xf0, 0x13, 0xd5, 0xd7, 0xdf, 0xdd, 0xd, 0xff, 0x17, 0x13, 0xc8, 0xe2,
    0xed, 0x18, 0xc, 0xdd, 0x4e, 0x20, 0xe, 0xd8, 0x1, 0xea, 0xd7, 0xd2,
    0xe3, 0x27, 0xd5, 0x19, 0xbd, 0x6, 0xd5, 0xf2, 0xe3, 0xb5, 0xd8, 0xe3,
    0xd2, 0xd9, 0xba, 0x8, 0x9e, 0xaf, 0x13, 0xc9, 0x6, 0xcf, 0x5, 0xd5,
    0xd6, 0xe5, 0xee, 0x1, 0x4, 0x28, 0xe, 0x1, 0x1b, 0x9, 0xea, 0x9,
    0xde, 0x2, 0xf8, 0xed, 0x11, 0xe7, 0x4, 0xec, 0xde, 0x10, 0xcb, 0xf4,
    0xf0, 0x25, 0x19, 0xf8, 0x2, 0x16, 0xe9, 0x13, 0x1b, 0xe8, 0xf5, 0xe3,
    0xee, 0xf9, 0x3e, 0x9, 0xc5, 0x9, 0x7, 0xee, 0xe9, 0x1a, 0xd8, 0xe6,
    0xfc, 0x1b, 0xf0, 0x3, 0x8, 0x15, 0x12, 0xb, 0x18, 0xb, 0x1e, 0x11,
    0xba, 0xcf, 0x2b, 0xe3, 0x12, 0xeb, 0xfe, 0x21, 0xf5, 0xe9, 0xff, 0xe7,
    0xf9, 0xd9, 0x3, 0x9, 0xdc, 0xd2, 0xd5, 0xd, 0xd9, 0xeb, 0xbe, 0x21,
    0x28, 0x1e, 0x9, 0x15, 0x6, 0x8, 0xfb, 0x1, 0x60, 0xf2, 0x24, 0x32,
    0xf4, 0xf2, 0x23, 0x17, 0x20, 0x2, 0x1, 0xb, 0xf5, 0xed, 0xf8, 0x6,
    0xcb, 0x2b, 0xf, 0xaa, 0x56, 0xe9, 0x17, 0xda, 0x48, 0x39, 0x5, 0xeb,
    0x81, 0xf1, 0xda, 0xd8, 0xe9, 0xc0, 0xf7, 0x21, 0xcd, 0x30, 0x44, 0xc6,
    0x64, 0x46, 0xed, 0x2f, 0xdc, 0xa8, 0x2e, 0x1d, 0x1, 0xda, 0xfa, 0x15,
    0x49, 0x53, 0xcf, 0xea, 0x8, 0xe4, 0x26, 0xfa, 0x6b, 0xc3, 0x35, 0xd,
    0x3c, 0x15, 0x33, 0x4, 0xeb, 0x2, 0xf5, 0x16, 0xd, 0xdf, 0xb, 0xf4,
    0x27, 0x9, 0x1a, 0xda, 0xf8, 0xcf, 0xf8, 0xf7, 0x7, 0x27, 0xe6, 0x1e,
    0x29, 0x52, 0x29, 0x9, 0xf2, 0xf2, 0x2c, 0xdb, 0xbe, 0xe, 0xf9, 0x1,
    0xfc, 0xd0, 0xdf, 0xe0, 0xf3, 0x1c, 0x28, 0xf2, 0x7, 0x34, 0xf1, 0x26,
    0xd4, 0x9, 0xfb, 0xb2, 0x7, 0x27, 0xda, 0xd6, 0x7, 0xd3, 0xdb, 0xcf,
    0xd6, 0xa6, 0x15, 0x15, 0x12, 0x23, 0x1f, 0x1, 0xd6, 0xd4, 0x0, 0x20,
    0xed, 0xda, 0xfb, 0xdc, 0xed, 0x1f, 0xef, 0x18, 0xce, 0x8, 0xbd, 0xa2,
    0xf5, 0xcb, 0xe6, 0xe1, 0x24, 0xd4, 0xc2, 0xd0, 0x9e, 0xe5, 0xdd, 0x20,
    0x23, 0x7, 0xfe, 0x19, 0xbe, 0x81, 0xfa, 0xce, 0xfd, 0xde, 0xe7, 0x30,
    0xe2, 0xd8, 0xe5, 0x1, 0xe8, 0x1f, 0xb0, 0xd, 0x14, 0xbc, 0x41, 0x23,
    0xed, 0xf2, 0xfb, 0xfc, 0x6, 0xf5, 0xe4, 0x4, 0x1, 0xd9, 0xfe, 0xb7,
    0xe0, 0x11, 0xee, 0x19, 0xee, 0xf9, 0xd5, 0xe9, 0x22, 0xd3, 0xb, 0xb3,
    0xd8, 0xc, 0xea, 0xf2, 0xef, 0x1d, 0x6, 0xf7, 0xc3, 0xc, 0xc8, 0xda,
    0xe5, 0xee, 0x0, 0xcf, 0xf0, 0xfe, 0xfc, 0x33, 0x2, 0xc4, 0x2e, 0xc,
    0x4, 0xa, 0xe1, 0x2b, 0xeb, 0xd0, 0xcf, 0xdc, 0xf2, 0xfc, 0xfc, 0x14,
    0x5, 0xf9, 0x38, 0x17, 0xe1, 0xf6, 0x2, 0xd1, 0xef, 0xe9, 0x13, 0x4,
    0xb, 0x1, 0xfc, 0xe0, 0xf0, 0xa, 0x13, 0xd9, 0xd2, 0xea, 0x20, 0x14,
    0xf3, 0xd1, 0xf1, 0xe0, 0xcb, 0xc6, 0x11, 0xfa, 0x10, 0xf1, 0xfb, 0x2,
    0xa, 0xf7, 0xe5, 0xd2, 0xda, 0x1c, 0xdd, 0xb4, 0xb5, 0xec, 0xca, 0xf4,
    0xe8, 0xbe, 0xad, 0xd5, 0xbd, 0xd0, 0xb4, 0xe, 0xc6, 0xa6, 0xc3, 0x98,
    0xfd, 0xcc, 0xfa, 0xfb, 0x36, 0xf5, 0x1c, 0x18, 0x36, 0xf9, 0x5e, 0x1,
    0xf3, 0x8, 0xdd, 0x21, 0xef, 0x42, 0x27, 0x1a, 0x31, 0x1b, 0x1f, 0x1b,
    0x15, 0x2e, 0x1b, 0x15, 0x4, 0xe0, 0xf7, 0x1c, 0x9, 0xf4, 0x23, 0x4,
    0xcb, 0xee, 0xfb, 0xfb, 0x13, 0x9, 0x21, 0x3, 0x5, 0x31, 0x20, 0xf6,
    0xc, 0xfa, 0x25, 0x2c, 0x28, 0x15, 0x1b, 0x16, 0xe9, 0xf5, 0x6, 0x12,
    0x23, 0x1e, 0x10, 0xff, 0x26, 0x22, 0x2a, 0xfc, 0xf2, 0xf7, 0x0, 0x2d,
    0xe7, 0x1f, 0x1, 0xc, 0xe, 0x21, 0x13, 0x18, 0x3e, 0x24, 0x17, 0x2c,
    0xd0, 0xba, 0x3a, 0xee, 0x2e, 0xcd, 0x1, 0x26, 0x6, 0x18, 0x24, 0x1e,
    0x22, 0xe, 0x39, 0x39, 0xdb, 0x1c, 0xc9, 0x14, 0xe, 0xb, 0xfb, 0x2,
    0xf1, 0xf8, 0x4f, 0xca, 0xb, 0xf4, 0x2c, 0x41, 0x3e, 0x55, 0xdb, 0xc8,
    0xc, 0x7f, 0x9, 0x18, 0xd9, 0x2f, 0x5, 0x0, 0xba, 0x25, 0x49, 0xeb,
    0xc, 0x15, 0x32, 0x40, 0x4, 0xed, 0xde, 0x1e, 0x45, 0xa, 0x2b, 0x1e,
    0x64, 0xdf, 0x1b, 0x2b, 0x6, 0x27, 0xff, 0xd9, 0x5, 0xfe, 0x1d, 0xe0,
    0x7, 0xc5, 0x21, 0x14, 0x32, 0x24, 0xa, 0xfd, 0xcc, 0xa, 0x0, 0x13,
    0xf3, 0xde, 0xef, 0xfc, 0xf3, 0xfe, 0x15, 0xd1, 0x1c, 0x1e, 0x2a, 0xa,
    0x54, 0xef, 0x68, 0xf5, 0x6, 0x1a, 0x45, 0xf7, 0x67, 0x7d, 0x4b, 0x49,
    0xfe, 0x64, 0x29, 0xf, 0x1e, 0x63, 0xf6, 0x3d, 0x15, 0x1a, 0x42, 0x35,
    0xed, 0x20, 0x81, 0xc9, 0xe3, 0xc9, 0x2b, 0x18, 0x36, 0xbb, 0x1c, 0x3,
    0xe2, 0xd0, 0xcb, 0xd3, 0xfd, 0xf9, 0xa2, 0xe0, 0xf9, 0xe1, 0xe6, 0xb1,
    0xfc, 0xa9, 0xb9, 0x1, 0x35, 0x14, 0xec, 0xd3, 0xd3, 0x72, 0xf4, 0xa,
    0xf, 0xe2, 0xe3, 0xb0, 0x33, 0xc0, 0xec, 0x17, 0x9d, 0x13, 0xd3, 0xd4,
    0xb7, 0xc, 0xd4, 0xc2, 0x8f, 0xf, 0x45, 0xf9, 0xbf, 0xaa, 0xe0, 0x1,
    0x1a, 0xaf, 0xe1, 0x35, 0xd7, 0xd7, 0xf2, 0x11, 0x32, 0xd7, 0x15, 0xe3,
    0xd, 0x26, 0x1d, 0x8e, 0x31, 0xf2, 0x41, 0x86, 0xfa, 0x17, 0xe2, 0xfe,
    0x32, 0xea, 0xd3, 0xd8, 0xed, 0xe3, 0xf4, 0xee, 0xdd, 0x24, 0x1d, 0xf2,
    0x55, 0xd2, 0xec, 0xfc, 0x7, 0xd5, 0xc, 0xce, 0xeb, 0xc0, 0xf8, 0x1,
    0xc5, 0xed, 0xe6, 0xf6, 0x1, 0x2e, 0x36, 0xfe, 0x19, 0xe6, 0x2c, 0xe6,
    0xe2, 0xd, 0x53, 0xeb, 0x16, 0x2e, 0xcb, 0x2c, 0xd, 0xeb, 0xc4, 0xf,
    0xee, 0xf8, 0xfd, 0x11, 0xf0, 0xf1, 0x19, 0x17, 0xf9, 0xff, 0xf7, 0xf5,
    0xf6, 0xe6, 0xde, 0x29, 0xf2, 0x17, 0xd, 0xcc, 0xae, 0xf0, 0xeb, 0xd4,
    0xfe, 0xd3, 0x14, 0x2a, 0xed, 0xe3, 0xea, 0xf2, 0xed, 0x23, 0x43, 0xfb,
    0x1c, 0xa, 0xe6, 0x1a, 0xef, 0xdb, 0xd0, 0xe3, 0xe4, 0x6, 0xdc, 0x46,
    0xb6, 0xe2, 0xa6, 0xe7, 0xc3, 0xa6, 0xe0, 0xf2, 0x6, 0xb7, 0xb8, 0xf3,
    0xd2, 0xda, 0x0, 0xe3, 0x12, 0xd6, 0xf2, 0x1a, 0xf, 0xff, 0x81, 0xe6,
    0xdf, 0x1, 0x1d, 0x11, 0x45, 0xfc, 0x3e, 0x1f, 0xca, 0xea, 0x14, 0x36,
    0x7, 0xf2, 0xd1, 0xf1, 0xd6, 0xae, 0xfd, 0xb0, 0xdf, 0xef, 0x9, 0xca,
    0x16, 0xeb, 0xda, 0x15, 0xe4, 0x2c, 0xfa, 0x4e, 0xcd, 0xf2, 0xc3, 0xf1,
    0x25, 0xae, 0xf4, 0xfe, 0xa9, 0x1f, 0x3, 0xd1, 0xe2, 0x4, 0xde, 0xb7,
    0xbb, 0xf1, 0x18, 0xf6, 0xd8, 0xd4, 0x1a, 0x5, 0x1e, 0xff, 0x41, 0xd8,
    0xdb, 0xf7, 0x1f, 0xf2, 0xf6, 0x1, 0xeb, 0xfd, 0x18, 0xda, 0x19, 0x1d,
    0xd7, 0xe7, 0x48, 0xd5, 0x21, 0xfd, 0xf2, 0x18, 0xf4, 0xa, 0x9, 0xfd,
    0xde, 0x9, 0xba, 0xca, 0xba, 0xe2, 0xd7, 0x17, 0x7, 0xb2, 0xf3, 0xe6,
    0x21, 0xe, 0xed, 0xeb, 0xff, 0x9, 0x5, 0x9, 0xf0, 0x19, 0x10, 0xf2,
    0x15, 0x24, 0x3, 0x2, 0xf2, 0xfa, 0x2, 0x9, 0xe6, 0x7, 0x24, 0xff,
    0xff, 0xe, 0xd1, 0xf4, 0x8, 0xd8, 0xe9, 0xfe, 0xe9, 0x15, 0xfd, 0xf3,
    0x11, 0xf7, 0x22, 0xdb, 0xf8, 0xf0, 0xe1, 0xa, 0xf7, 0xe4, 0xdf, 0xb,
    0xf4, 0xf0, 0xf4, 0xd9, 0xb, 0x2d, 0x1b, 0x14, 0xf9, 0xf8, 0x1b, 0x19,
    0xc, 0xbe, 0xef, 0xf7, 0x15, 0x38, 0x13, 0xf, 0x3e, 0xf6, 0x15, 0xf6,
    0xd, 0x4, 0xf2, 0x5, 0xe7, 0x12, 0x17, 0xfb, 0xec, 0xf0, 0xf9, 0xde,
    0xd8, 0xce, 0xe4, 0xdf, 0x0, 0xe5, 0xe3, 0xb, 0xd1, 0xff, 0xfb, 0xfd,
    0x10, 0xdd, 0xdc, 0xba, 0xda, 0xf1, 0xfe, 0xf8, 0xff, 0xdf, 0xe, 0x4,
    0x0, 0xdc, 0xeb, 0x11, 0xd1, 0x7, 0x3, 0x1a, 0x32, 0x6, 0x15, 0xe1,
    0x14, 0xb, 0xf4, 0xf6, 0xf1, 0xf, 0xb, 0xed, 0x3, 0xee, 0xf8, 0x1c,
    0xf5, 0xfa, 0xe8, 0x1, 0x20, 0x4a, 0x4c, 0x6, 0xc0, 0x18, 0xf8, 0x22,
    0x13, 0x22, 0x8, 0x27, 0x12, 0x2, 0xfa, 0xfc, 0xd7, 0xa, 0x13, 0xea,
    0xf3, 0xca, 0xa, 0xde, 0xe6, 0xe1, 0x1e, 0xd2, 0x33, 0xd7, 0xbe, 0xd,
    0x23, 0xf2, 0x12, 0xfe, 0x43, 0xde, 0xd6, 0xf, 0xec, 0xcd, 0xa7, 0x22,
    0x9, 0xdd, 0xe7, 0xe7, 0xdd, 0xe1, 0x36, 0xf2, 0x25, 0x1e, 0x1d, 0x1a,
    0x4e, 0xef, 0x52, 0xc, 0x1d, 0xf9, 0xdb, 0x12, 0x7f, 0xd4, 0x25, 0xdb,
    0xe0, 0xc, 0xa0, 0xf5, 0x2c, 0xe8, 0xff, 0xe3, 0x18, 0xbd, 0xf, 0x38,
    0x1a, 0x12, 0x4b, 0x27, 0xf0, 0xb8, 0xce, 0x8, 0x3, 0x98, 0x2d, 0xce,
    0xc, 0x20, 0x1c, 0xd0, 0x15, 0x45, 0x13, 0xee, 0xfc, 0x12, 0xf, 0xc4,
    0xd, 0x6, 0x22, 0xc5, 0x3, 0x26, 0x45, 0xcd, 0xfe, 0xcc, 0xa4, 0x2a,
    0x23, 0xce, 0xfa, 0x1d, 0x2b, 0xac, 0xd, 0x3b, 0x32, 0x8, 0xd7, 0x14,
    0xf6, 0xe7, 0x3, 0xbd, 0xef, 0x10, 0x1a, 0xe7, 0xb8, 0x1b, 0x5a, 0x0,
    0x8, 0xf, 0xed, 0x2d, 0x24, 0xba, 0x8, 0xee, 0x1b, 0x37, 0x21, 0x23,
    0xb9, 0x22, 0xc, 0x17, 0x2, 0x52, 0x31, 0xde, 0xb9, 0xd2, 0x22, 0x3,
    0xea, 0x5, 0xf3, 0x27, 0x14, 0x2, 0xf5, 0x19, 0x85, 0xf, 0xa3, 0xfc,
    0x20, 0xfc, 0xb, 0xc, 0x34, 0x5, 0x7, 0x13, 0x17, 0xef, 0x52, 0xf8,
    0xfd, 0xf5, 0xff, 0x63, 0x42, 0x31, 0x5b, 0x25, 0x3c, 0x4d, 0x33, 0x1e,
    0x2f, 0xc2, 0xa5, 0x0, 0x57, 0xfd, 0xe, 0xe6, 0xf9, 0xde, 0x7f, 0x3a,
    0xc6, 0x30, 0xdc, 0x28, 0xc1, 0x45, 0x66, 0xee, 0x7, 0xc0, 0xf8, 0x12,
    0xf4, 0xf6, 0x1e, 0x32, 0xf3, 0xfc, 0x41, 0x8, 0x5, 0x3c, 0xb5, 0xc1,
    0xf0, 0xf7, 0x47, 0x39, 0x5a, 0x55, 0x2a, 0xf4, 0x2, 0xb, 0x38, 0xc,
    0xfe, 0x3f, 0x4d, 0x2b, 0x16, 0x4b, 0xdc, 0xe3, 0xd4, 0xe7, 0x2, 0xb,
    0xfe, 0xd, 0x4d, 0xbf, 0x8, 0xb, 0xd7, 0xf3, 0xf9, 0x1c, 0x2d, 0xe,
    0x10, 0x0, 0x3a, 0x51, 0xd, 0xb, 0xe7, 0x18, 0x6, 0xfc, 0xfa, 0x43,
    0xee, 0x22, 0xf7, 0x13, 0x3f, 0x10, 0x9, 0x2e, 0xb, 0xfc, 0xf, 0x1c,
    0xba, 0xfd, 0x2c, 0xd8, 0xee, 0x14, 0xe5, 0x0, 0x13, 0xf6, 0xf3, 0x2a,
    0xf, 0xfe, 0xe6, 0xe1, 0x13, 0xf4, 0xfb, 0x0, 0xd, 0x11, 0xf8, 0x1e,
    0xfa, 0xf6, 0xff, 0xd, 0x25, 0x21, 0xa, 0xb, 0x2c, 0x1b, 0xe, 0x58,
    0x47, 0x20, 0x11, 0x37, 0x68, 0x13, 0x0, 0x12, 0x1e, 0x30, 0xed, 0xbe,
    0xf, 0x2d, 0x1b, 0xd, 0x1e, 0x2d, 0x13, 0x10, 0xff, 0x45, 0x0, 0x19,
    0x35, 0x32, 0x4, 0x2a, 0x47, 0x21, 0x36, 0x8, 0xf5, 0x24, 0xd4, 0xe8,
    0xec, 0xcc, 0xdf, 0x50, 0x35, 0xdb, 0xff, 0xbd, 0xe7, 0x81, 0x62, 0xe1,
    0x41, 0xef, 0xab, 0xf5, 0xee, 0xe2, 0x1d, 0xf6, 0x17, 0x11, 0xe0, 0xe3,
    0x1e, 0xde, 0xc, 0x20, 0x17, 0x3b, 0x1a, 0x24, 0xb7, 0x5, 0xcf, 0xb7,
    0xa8, 0xe6, 0x1a, 0xf, 0xe7, 0x27, 0xfe, 0x2, 0x0, 0xd, 0xfb, 0xbe,
    0xbd, 0x37, 0x29, 0xe6, 0xb, 0x2f, 0x2, 0x16, 0x5, 0x9f, 0xeb, 0x13,
    0xd3, 0xdd, 0xd9, 0xdd, 0xe1, 0xb4, 0xc4, 0xd, 0x1a, 0xe0, 0xef, 0x19,
    0x3, 0xdd, 0x63, 0xb8, 0x33, 0xff, 0x31, 0xfa, 0xfb, 0x0, 0xde, 0xf6,
    0x20, 0xf7, 0xbd, 0x23, 0xe3, 0xe4, 0xeb, 0xda, 0x36, 0xe9, 0x26, 0x6,
    0xf3, 0x7, 0xf5, 0x18, 0xa, 0xe6, 0x1, 0xe, 0xdd, 0x1a, 0x1, 0xf,
    0xf7, 0x1d, 0x5, 0x14, 0xe7, 0xf3, 0xd3, 0x3, 0xe5, 0xff, 0x1f, 0xd,
    0x7, 0x1c, 0xf8, 0xda, 0xc, 0x1, 0x1, 0xe6, 0xe4, 0x21, 0x0, 0xdf,
    0xe2, 0x0, 0x15, 0xe7, 0xc7, 0xf3, 0xfb, 0x7, 0xf8, 0xe6, 0xf3, 0x11,
    0x2, 0xfd, 0xa, 0xd6, 0x1, 0xfb, 0xff, 0x4, 0xf0, 0xff, 0x1a, 0x1d,
    0xea, 0xb1, 0xfb, 0xfd, 0x13, 0x42, 0x10, 0xd, 0x26, 0xf5, 0x1c, 0x29,
    0xf4, 0x3, 0xc4, 0xc2, 0xee, 0x2, 0xf8, 0xf0, 0xd7, 0x1a, 0xc2, 0xfa,
    0xd2, 0xcd, 0xcd, 0x17, 0x8, 0xd9, 0xcf, 0xd5, 0xd9, 0x16, 0xa, 0xdf,
    0x2a, 0xec, 0xf7, 0xf4, 0xcd, 0xf9, 0xcd, 0xe5, 0xff, 0xfc, 0xeb, 0xdd,
    0xff, 0xf5, 0x15, 0xe4, 0xfb, 0xce, 0xe8, 0xc6, 0xe2, 0xad, 0x44, 0x1d,
    0xe1, 0xd, 0xdc, 0x19, 0xde, 0x2, 0x1, 0x9, 0xf4, 0xa2, 0x40, 0xe7,
    0xe, 0x0, 0xcd, 0xf0, 0xda, 0xa, 0xc8, 0xf8, 0xa5, 0x11, 0x12, 0x4c,
    0xc5, 0xf8, 0xed, 0xd5, 0xdf, 0xa7, 0x81, 0xc3, 0x35, 0xfb, 0x30, 0xf2,
    0xed, 0xaa, 0xd1, 0xae, 0xf6, 0xcc, 0xfa, 0xfe, 0xf6, 0xe7, 0xd2, 0xf1,
    0xf2, 0xb, 0xb1, 0xfe, 0xd0, 0xd1, 0x3, 0xdb, 0xc3, 0xec, 0xff, 0xee,
    0x2c, 0x4, 0x2d, 0xf, 0xdc, 0xd2, 0xe1, 0xaa, 0xf0, 0x13, 0xb4, 0xd7,
    0xf7, 0xdc, 0xc1, 0xca, 0xe2, 0xfa, 0xf8, 0xfb, 0x32, 0xe6, 0xf, 0xcb,
    0xf2, 0xee, 0xe5, 0xe, 0xaf, 0xfc, 0xd1, 0xe3, 0xf9, 0x16, 0x36, 0xcc,
    0xe4, 0x9, 0x43, 0x2d, 0xea, 0x0, 0xf, 0xf5, 0xc8, 0x15, 0xf6, 0xd4,
    0x7, 0xe9, 0xcb, 0xd9, 0x19, 0x10, 0xef, 0x13, 0x1c, 0xf6, 0xff, 0xe2,
    0xe9, 0xe4, 0x0, 0xd6, 0xf7, 0xd5, 0xfb, 0x2, 0x1, 0xf7, 0x14, 0xd,
    0xfc, 0x6, 0xd, 0x15, 0xe8, 0x2b, 0x22, 0x19, 0xd6, 0xac, 0xe3, 0xec,
    0x16, 0x42, 0xf6, 0xd8, 0xf9, 0xd9, 0xe8, 0xf, 0xfd, 0xce, 0xe1, 0xed,
    0xe0, 0xcc, 0xdc, 0xec, 0xc2, 0xdb, 0xe, 0x2d, 0xf1, 0xca, 0xe6, 0xd6,
    0xc, 0xa9, 0x12, 0xe8, 0xd0, 0x86, 0x37, 0xfa, 0xf1, 0xbe, 0xa, 0xf,
    0xe8, 0xf3, 0xec, 0x9, 0xc, 0x5, 0x7, 0xc, 0xf, 0x11, 0xe6, 0x9,
    0xed, 0x20, 0xc, 0xf6, 0x14, 0xde, 0x15, 0x17, 0xe8, 0xe, 0xfc, 0x4,
    0x9, 0x7, 0x15, 0x6, 0xfc, 0xd5, 0xa, 0x22, 0x12, 0x0, 0xe9, 0x26,
    0xea, 0x1d, 0xff, 0xf4, 0x3, 0x34, 0xf1, 0xea, 0x16, 0xf4, 0xf3, 0xd8,
    0x4, 0xe0, 0xf5, 0xfd, 0x3, 0x2e, 0x24, 0x1a, 0x31, 0x13, 0x20, 0x3,
    0xc, 0x12, 0xd, 0x16, 0x1d, 0x1a, 0xf9, 0x10, 0xdb, 0xfd, 0x39, 0x3,
    0x23, 0x27, 0x7, 0x1, 0x20, 0x1, 0x8, 0xb, 0xca, 0xf1, 0xfb, 0xfa,
    0xf2, 0xee, 0xfd, 0x6, 0xf, 0xf0, 0x16, 0xfc, 0xe5, 0xbf, 0xde, 0x19,
    0x15, 0x38, 0xdd, 0x1e, 0x32, 0xfd, 0xf7, 0x3e, 0xed, 0x2e, 0x34, 0xfc,
    0x15, 0xc1, 0x7, 0xc, 0xdc, 0xe0, 0x3, 0xf3, 0xca, 0x4, 0xea, 0xe1,
    0xe, 0x81, 0x2b, 0xc6, 0xff, 0xb, 0xfe, 0x1e, 0xe1, 0x17, 0x4e, 0x0,
    0x2e, 0xd0, 0x4e, 0xfc, 0xd, 0xd3, 0xdf, 0x1e, 0x14, 0xc0, 0xf2, 0xdd,
    0xb5, 0xe9, 0xaf, 0xf6, 0xb3, 0xf0, 0xca, 0xe1, 0x26, 0xe3, 0x2d, 0x1,
    0xdb, 0x63, 0xfa, 0xb, 0xfd, 0x22, 0x1, 0x15, 0xd6, 0xce, 0xf1, 0xeb,
    0xe9, 0x3e, 0x3f, 0xe8, 0xe3, 0xf4, 0x10, 0x1, 0xf6, 0x21, 0xea, 0x3a,
    0x18, 0x14, 0x8, 0x1b, 0x23, 0x3d, 0x4d, 0x14, 0xba, 0xf6, 0x64, 0xf7,
    0x6, 0xf8, 0x1c, 0xc3, 0x8, 0xf8, 0xf8, 0xff, 0xc3, 0xf3, 0x3, 0xfa,
    0xd4, 0xc, 0xa6, 0x4, 0x11, 0xc0, 0x37, 0xdd, 0x2a, 0xb4, 0x7, 0xe5,
    0x1b, 0x1, 0xee, 0x1e, 0xfd, 0x0, 0xf4, 0x18, 0x3b, 0x15, 0xc0, 0xe3,
    0xc5, 0xa1, 0xda, 0x2c, 0x7f, 0x3b, 0x14, 0x88, 0xc4, 0xbf, 0xad, 0xc4,
    0x4f, 0xe6, 0x17, 0xae, 0xea, 0x6, 0x4c, 0x2d, 0x18, 0xe6, 0xc9, 0xc7,
    0x24, 0x59, 0xe, 0xe6, 0x8, 0x31, 0xd0, 0x42, 0x3b, 0x2c, 0x7, 0xd8,
    0xe9, 0xd4, 0xfb, 0xe0, 0xec, 0x16, 0x21, 0x3, 0xb, 0xfe, 0x12, 0xe0,
    0xb4, 0xd, 0x24, 0xc8, 0x59, 0x15, 0x6f, 0xd8, 0xe, 0x7, 0x8, 0xb,
    0xdc, 0xd7, 0xdd, 0xb3, 0xd9, 0xe7, 0xd9, 0x3c, 0xf, 0xff, 0x5, 0xff,
    0xe, 0xd7, 0xec, 0xf4, 0xe, 0x14, 0x12, 0xae, 0xdc, 0x42, 0xf2, 0x44,
    0xe, 0xb, 0xc8, 0x3, 0x2c, 0xca, 0xeb, 0x35, 0xfd, 0xb, 0xe4, 0xfb,
    0xfb, 0x25, 0xeb, 0xd0, 0x3, 0x3, 0xf3, 0xf7, 0xf2, 0xb, 0x25, 0xfb,
    0xe7, 0xda, 0x16, 0xff, 0xee, 0x19, 0xd6, 0x26, 0x3, 0xf7, 0xf5, 0xef,
    0xf, 0x1a, 0xd, 0xdb, 0x14, 0xd, 0xf, 0xf3, 0x7, 0x15, 0x1a, 0x6,
    0xf2, 0x14, 0xfa, 0xd, 0x1, 0x2, 0x11, 0x3, 0x35, 0x3, 0xed, 0xfe,
    0x5, 0xf1, 0xe3, 0xee, 0xcc, 0x42, 0xc5, 0xf3, 0xcc, 0x24, 0xdf, 0xe2,
    0xe7, 0xc4, 0xdc, 0xec, 0xf1, 0xe7, 0xe8, 0xef, 0xdf, 0xe5, 0x8, 0x11,
    0x17, 0xe9, 0x8, 0xa0, 0xf7, 0xd3, 0x32, 0xa, 0xdd, 0xe1, 0x26, 0x8,
    0x1f, 0xc7, 0xa, 0x32, 0xf9, 0x1b, 0x14, 0xf3, 0x4, 0x31, 0x2d, 0x9,
    0xe, 0x34, 0xb, 0x8, 0x2, 0x17, 0x10, 0xe, 0x26, 0xd7, 0x8, 0x35,
    0xfa, 0xfb, 0xfe, 0xf4, 0x3, 0x14, 0x18, 0xee, 0xe2, 0xf, 0xf7, 0xf1,
    0x11, 0x11, 0xe8, 0xd9, 0xfa, 0x10, 0x26, 0x2a, 0xe3, 0xb, 0x2b, 0x1e,
    0x17, 0xef, 0xf1, 0xf1, 0x11, 0xdc, 0x14, 0xc8, 0xf, 0x21, 0x3c, 0x5,
    0xe2, 0x1a, 0x3d, 0xec, 0x39, 0x2a, 0x1b, 0x1e, 0xf, 0xf8, 0x26, 0x32,
    0xdd, 0xc5, 0xf2, 0xf8, 0x4a, 0xe2, 0x9, 0xde, 0x4c, 0x1d, 0x5d, 0x25,
    0x27, 0x1a, 0xf5, 0x7a, 0xca, 0xfc, 0x23, 0x68, 0xd3, 0x16, 0xf1, 0xe4,
    0x46, 0x27, 0x30, 0xe4, 0xe9, 0xe9, 0x30, 0xe6, 0x52, 0xe8, 0xf5, 0x95,
    0x21, 0xf1, 0x5e, 0xcc, 0xe5, 0x90, 0x5d, 0x9, 0xa0, 0xf6, 0x6, 0xa,
    0xac, 0x25, 0xf0, 0xaa, 0x5a, 0xf8, 0x31, 0x0, 0xdc, 0xf4, 0x2c, 0x1b,
    0xf5, 0xf8, 0x81, 0x1b, 0x2f, 0x2f, 0xf1, 0x14, 0x0, 0x22, 0x2a, 0xc9,
    0xd, 0xce, 0xee, 0x14, 0x25, 0x22, 0x20, 0xf1, 0xfa, 0x26, 0x31, 0x20,
    0x0, 0x3a, 0x27, 0xe2, 0xb6, 0x2f, 0x10, 0xa2, 0xb4, 0xdd, 0x20, 0xd9,
    0xce, 0xf2, 0xd8, 0x5c, 0xce, 0x45, 0x54, 0x16, 0xe4, 0x1e, 0x20, 0x2c,
    0x10, 0xcf, 0x55, 0xa6, 0xdc, 0x5, 0xf6, 0xfa, 0xf2, 0xfb, 0x28, 0xe9,
    0x1e, 0xeb, 0x1c, 0xf, 0x1f, 0xf8, 0x8, 0x1, 0xf3, 0x25, 0xdf, 0x15,
    0xe6, 0x20, 0x9, 0xca, 0xfb, 0xec, 0x2c, 0x1, 0x1f, 0x14, 0x1a, 0x8,
    0x15, 0x1f, 0xe, 0x11, 0xb, 0xec, 0x10, 0x2b, 0xf7, 0xee, 0x0, 0xfe,
    0x28, 0x1a, 0x9, 0x19, 0x10, 0xec, 0x33, 0xf8, 0xe1, 0xf7, 0xe3, 0x38,
    0x7, 0x1f, 0xf6, 0x10, 0xf4, 0x23, 0x14, 0x2d, 0xc, 0x0, 0x3, 0xf1,
    0x10, 0x6, 0x17, 0x1e, 0xe6, 0x2c, 0x2e, 0x31, 0xf9, 0x24, 0x35, 0x5,
    0xc, 0x29, 0xa, 0x20, 0x1c, 0xfb, 0x6, 0x37, 0xef, 0xcb, 0x7, 0xf6,
    0x25, 0xe5, 0x17, 0x2b, 0x35, 0x29, 0x39, 0x38, 0x44, 0x22, 0x8, 0x55,
    0xfe, 0xd, 0xc4, 0x3e, 0x9, 0x2, 0xd5, 0x1b, 0x9, 0xf0, 0x12, 0xd9,
    0x1d, 0xdc, 0xfa, 0xe9, 0xc7, 0x1e, 0xd8, 0xf6, 0xcd, 0xa, 0x12, 0xfe,
    0x25, 0x1a, 0x1d, 0x25, 0x8, 0x1a, 0xff, 0x5, 0x17, 0x2a, 0x10, 0x45,
    0x79, 0x37, 0x29, 0x11, 0x2b, 0xe9, 0x16, 0x17, 0x3e, 0xee, 0x4, 0x17,
    0x14, 0xfe, 0xf6, 0x4b, 0xd7, 0x37, 0xe0, 0x19, 0x5c, 0xef, 0xfd, 0x27,
    0xd2, 0x4a, 0xb, 0xee, 0x0, 0x44, 0x11, 0x41, 0x23, 0xeb, 0xe3, 0x18,
    0xda, 0xd, 0x53, 0x5, 0x37, 0x1a, 0x4f, 0x54, 0xfd, 0x57, 0xf9, 0x21,
    0x58, 0x5, 0x4d, 0x3b, 0x46, 0x25, 0x1e, 0x3, 0xed, 0x3d, 0x7f, 0x25,
    0x8, 0x1e, 0x5b, 0xee, 0x3, 0x46, 0x5c, 0x1e, 0xc5, 0xea, 0x81, 0x1d,
    0x29, 0x7, 0xa3, 0xe8, 0xff, 0xe6, 0x68, 0x11, 0x28, 0xb8, 0x3c, 0x41,
    0x17, 0x4, 0xa8, 0xc3, 0x44, 0xc4, 0xd0, 0xad, 0xe7, 0x23, 0xdd, 0xd5,
    0x3f, 0x8, 0xa, 0xf, 0x18, 0x44, 0xf3, 0xdf, 0xf8, 0xe6, 0xa7, 0x12,
    0x8, 0xee, 0x29, 0x3f, 0xfa, 0xf9, 0xa, 0xe0, 0xb0, 0xf8, 0xab, 0xc8,
    0x3c, 0x20, 0x13, 0x12, 0xf6, 0x8e, 0xea, 0xe4, 0xf2, 0x34, 0x3, 0xf5,
    0x4d, 0x4, 0xc3, 0xff, 0xc7, 0x1a, 0xe6, 0xf, 0xa9, 0xc1, 0x8, 0xe1,
    0x24, 0xfe, 0x25, 0xf2, 0xa, 0x1b, 0xd6, 0x14, 0xd1, 0x2a, 0xce, 0x9d,
    0xd9, 0x10, 0xfa, 0x5, 0xe5, 0x4, 0xf8, 0xd8, 0x28, 0xc9, 0xf7, 0xae,
    0xe5, 0xf5, 0xe, 0x17, 0xc5, 0xea, 0x7, 0xa, 0x9d, 0xeb, 0xca, 0xb6,
    0x3, 0xea, 0x40, 0xc2, 0xe7, 0x0, 0x28, 0x7, 0xdd, 0x5, 0x42, 0xb,
    0xf9, 0x26, 0xd0, 0xd, 0x2a, 0xd4, 0xc2, 0xfc, 0xea, 0x9, 0x14, 0x14,
    0x2e, 0x1c, 0x2c, 0x1e, 0xc, 0xd3, 0xc, 0xd9, 0xf1, 0xe4, 0xf6, 0x16,
    0x13, 0xf7, 0xf5, 0xda, 0xd6, 0x15, 0xd, 0xe1, 0xf9, 0xf, 0x1c, 0x1,
    0x9, 0xf3, 0xaf, 0xd6, 0xd9, 0xb, 0xfb, 0x12, 0x59, 0x1d, 0x6, 0x23,
    0x8, 0xe4, 0xcc, 0xc8, 0xdb, 0x21, 0xc3, 0xd2, 0xcc, 0xe, 0xca, 0xd7,
    0x1, 0x94, 0xa1, 0xd4, 0xbc, 0xbd, 0xbd, 0xe4, 0x88, 0x88, 0xeb, 0x94,
    0xf1, 0xdb, 0x10, 0xd8, 0x24, 0x8, 0x1e, 0x10, 0x17, 0xf8, 0x1e, 0xd,
    0xf5, 0xfb, 0xfe, 0x6, 0xc, 0x27, 0x1c, 0x1, 0x17, 0xc, 0x10, 0x10,
    0xf, 0x22, 0x1d, 0xf6, 0xf0, 0x5, 0xe9, 0x25, 0x2d, 0xf8, 0xc, 0xc,
    0xf7, 0xf9, 0xfa, 0x1e, 0x33, 0x13, 0x1c, 0x8, 0xf7, 0x20, 0x10, 0x29,
    0x10, 0x8, 0x20, 0x24, 0x26, 0x3c, 0xfb, 0x1f, 0xf8, 0xfc, 0x18, 0x1a,
    0x8, 0x28, 0x16, 0x23, 0xec, 0xff, 0x19, 0xfa, 0x1d, 0x10, 0x4, 0x24,
    0xfb, 0x13, 0x29, 0xfe, 0x26, 0xfa, 0x2, 0x29, 0x3, 0xfd, 0xda, 0x32,
    0xe, 0xea, 0x2c, 0xfd, 0x21, 0xe9, 0x13, 0x18, 0xfb, 0x11, 0x3c, 0x18,
    0x13, 0x1f, 0x44, 0x1b, 0xc, 0x16, 0x2f, 0x9, 0xf3, 0xd, 0x21, 0x9,
    0x30, 0x1d, 0xa3, 0x18, 0x4d, 0x0, 0xf8, 0xee, 0x42, 0x0, 0xfb, 0x1c,
    0xe3, 0x1b, 0xfe, 0x26, 0x44, 0x2d, 0xe8, 0xf0, 0x1b, 0x1a, 0x21, 0x49,
    0xf9, 0xd8, 0xff, 0x29, 0x54, 0x25, 0x2d, 0x9, 0xa, 0xd, 0x3f, 0x31,
    0x3d, 0xfc, 0x21, 0x1b, 0x9, 0x47, 0xfc, 0xc, 0x12, 0xea, 0x8, 0xa,
    0x1d, 0xf5, 0x2, 0xff, 0xb, 0x3f, 0x39, 0x8, 0xf0, 0x7, 0xf3, 0x35,
    0xfc, 0x22, 0xcd, 0xe4, 0xd9, 0x14, 0x15, 0xfe, 0x33, 0x35, 0x1c, 0x69,
    0x33, 0x37, 0x29, 0xea, 0x38, 0xd, 0x2e, 0x9, 0x43, 0x22, 0x19, 0x13,
    0xdd, 0x49, 0x12, 0xa, 0x13, 0x7f, 0xec, 0x21, 0x13, 0x22, 0x29, 0x3b,
    0xf2, 0x15, 0x11, 0x74, 0x1b, 0x0, 0x18, 0x4f, 0x4, 0x42, 0x41, 0xd3,
    0xfd, 0xf8, 0xd5, 0x3, 0xdb, 0xe0, 0x31, 0xf1, 0x8, 0xce, 0x8, 0xef,
    0x1d, 0xdf, 0x52, 0x2e, 0x19, 0x3, 0x13, 0xcd, 0x1f, 0x41, 0x9f, 0x16,
    0x17, 0x8, 0xc2, 0xb6, 0x20, 0xd2, 0x0, 0x1b, 0x46, 0xa, 0xe1, 0xe7,
    0xad, 0xb7, 0xb3, 0x25, 0xdb, 0xbd, 0xb6, 0x1, 0xfd, 0x81, 0xe2, 0xc,
    0xe7, 0x6, 0xfb, 0x49, 0xe3, 0xd9, 0xd1, 0xb9, 0xdc, 0x41, 0xde, 0xe6,
    0xf8, 0xd1, 0x54, 0x29, 0x28, 0x19, 0xff, 0xc8, 0x19, 0x2, 0x11, 0xe6,
    0x18, 0xd7, 0x3, 0xeb, 0xe0, 0x25, 0xf4, 0x3a, 0xd4, 0x8, 0x9, 0xf6,
    0x21, 0xda, 0xf3, 0x8e, 0xcf, 0xec, 0xc3, 0xf4, 0xf6, 0x2b, 0x2, 0x3,
    0xe2, 0xeb, 0xee, 0x5, 0xe0, 0xf, 0xf9, 0x4, 0x10, 0x2, 0xe6, 0x42,
    0xe5, 0xf4, 0x1, 0x18, 0x15, 0x41, 0x5, 0xe6, 0x1, 0xee, 0xcd, 0xe9,
    0xd2, 0x1, 0x3f, 0x2, 0xd2, 0x1b, 0xe, 0xfd, 0xd9, 0x24, 0x6, 0xf2,
    0xf3, 0x0, 0x1, 0xff, 0xf2, 0x1d, 0xb, 0xfd, 0xf8, 0xf1, 0xea, 0xdf,
    0xe9, 0x27, 0x16, 0x12, 0xf9, 0x3, 0x14, 0xe, 0xde, 0x0, 0x23, 0x8,
    0x1d, 0x0, 0xd7, 0x17, 0x7, 0x18, 0xfb, 0xdc, 0xfc, 0x15, 0xf1, 0xec,
    0xc5, 0xe6, 0xd7, 0xbe, 0xd1, 0xd5, 0xe9, 0xce, 0xf5, 0xe0, 0xb6, 0x15,
    0x11, 0xcd, 0xc9, 0xff, 0x8, 0xea, 0xdb, 0xdd, 0x47, 0x0, 0x35, 0x27,
    0x48, 0x26, 0x57, 0xf2, 0xfd, 0x1c, 0x26, 0x31, 0x23, 0x1d, 0xa, 0xd0,
    0xf9, 0x13, 0x24, 0x46, 0x17, 0x2, 0x23, 0xd9, 0x2d, 0x19, 0xfb, 0x26,
    0x1d, 0x1b, 0x1, 0xb, 0xf8, 0xea, 0xfb, 0x25, 0x32, 0xfe, 0xf3, 0x6,
    0x3, 0x1c, 0x2a, 0xd, 0xe3, 0xeb, 0xe6, 0xa, 0x1e, 0x40, 0x33, 0x25,
    0x1a, 0x32, 0x18, 0x22, 0xf3, 0x28, 0x3, 0x2d, 0x12, 0x39, 0x32, 0x18,
    0xd8, 0x24, 0x2, 0x12, 0xf0, 0x36, 0x15, 0x15, 0xf, 0x36, 0x42, 0x12,
    0x48, 0x2a, 0x24, 0x2e, 0xd1, 0xfd, 0x35, 0xea, 0x29, 0xdc, 0x21, 0x31,
    0xf5, 0xf7, 0x8, 0xf, 0x41, 0x46, 0x41, 0x37, 0xf0, 0x5a, 0xc5, 0xdd,
    0xe2, 0x3e, 0xd3, 0x44, 0xdb, 0xd, 0xb, 0xe5, 0x56, 0x16, 0x28, 0xfd,
    0xf8, 0x5e, 0xf7, 0x25, 0xd4, 0x49, 0x1f, 0x25, 0x1a, 0xe1, 0xf6, 0x15,
    0x3e, 0x20, 0x3b, 0x2f, 0xc8, 0x1c, 0x4a, 0x19, 0x3d, 0x5, 0x38, 0x9,
    0x76, 0xc, 0x39, 0x34, 0x1f, 0xd8, 0xd, 0xe2, 0x29, 0x1d, 0xe3, 0x1a,
    0x16, 0x18, 0x34, 0xe0, 0x8, 0xfe, 0xf4, 0x2f, 0x0, 0x61, 0x44, 0xe2,
    0x7, 0x18, 0xe, 0x5d, 0xe3, 0xdb, 0xc6, 0xf9, 0xfb, 0x23, 0x1c, 0x21,
    0x22, 0xf3, 0x31, 0x40, 0x24, 0x4d, 0x4b, 0x0, 0xec, 0x21, 0x22, 0x24,
    0x12, 0x36, 0x44, 0x21, 0xff, 0x40, 0x3, 0x29, 0x27, 0x64, 0x3e, 0x1b,
    0x44, 0x7f, 0x29, 0x6a, 0xd4, 0xe2, 0xf1, 0x15, 0x4, 0x18, 0xe7, 0xfc,
    0x22, 0x14, 0xdd, 0x10, 0xea, 0x1, 0xf7, 0xd1, 0x23, 0x7, 0x18, 0xfc,
    0xfa, 0x26, 0x6, 0x1f, 0x5, 0x30, 0x7, 0x1, 0xe8, 0xfd, 0x10, 0x27,
    0xfa, 0xf8, 0xea, 0xe, 0x5, 0x19, 0x45, 0x1a, 0xe2, 0x34, 0x3, 0x18,
    0xfb, 0x10, 0xeb, 0x47, 0xf6, 0xd8, 0x1d, 0x12, 0x2, 0x12, 0x23, 0xd8,
    0x47, 0xe7, 0x2e, 0xe8, 0xda, 0xf2, 0xd, 0xf8, 0x9, 0x1a, 0x22, 0x1a,
    0x25, 0x1b, 0x37, 0x2c, 0x1c, 0x6, 0x31, 0xfa, 0x0, 0xf3, 0xdc, 0x3,
    0x9f, 0xed, 0x6, 0xf9, 0x1, 0xc7, 0x2f, 0x28, 0x56, 0xda, 0xed, 0xf6,
    0x2f, 0xfe, 0xfe, 0x27, 0xc6, 0x1c, 0xc7, 0x27, 0xe2, 0xe9, 0xd6, 0x43,
    0x15, 0xc, 0xe2, 0xb8, 0x16, 0x27, 0xe8, 0xbd, 0x1b, 0x3a, 0xce, 0x85,
    0x3e, 0x2b, 0xf1, 0xa, 0xa0, 0x2a, 0x12, 0xd6, 0xed, 0xd9, 0x11, 0x20,
    0xc3, 0x60, 0x33, 0xda, 0x4e, 0x32, 0xd2, 0x15, 0x7b, 0x90, 0x22, 0xdd,
    0x2c, 0xbd, 0x55, 0x15, 0x2b, 0xfb, 0xf5, 0x1c, 0xf5, 0xd8, 0x15, 0xed,
    0x54, 0xfa, 0x18, 0x19, 0xd, 0x50, 0x16, 0xca, 0xc0, 0x58, 0xeb, 0x5b,
    0xb, 0x9, 0xb, 0xca, 0x1c, 0x14, 0xf9, 0xd7, 0xfc, 0xd4, 0xf8, 0xff,
    0x1f, 0x3c, 0xf4, 0x21, 0x31, 0x1d, 0x7f, 0xf6, 0xf4, 0x18, 0x27, 0xe,
    0xcd, 0x5, 0x1f, 0xf1, 0xcf, 0xe5, 0x14, 0x95, 0xff, 0x1b, 0x39, 0xfb,
    0x1, 0x27, 0x2f, 0xe0, 0xcd, 0x16, 0xc6, 0xe8, 0xed, 0x19, 0xed, 0xd4,
    0x3d, 0x20, 0xda, 0x6a, 0xeb, 0x11, 0x2d, 0x28, 0xeb, 0x18, 0xf8, 0x54,
    0x43, 0x18, 0x2b, 0xc9, 0x13, 0xea, 0xfc, 0x31, 0x48, 0x5, 0xcb, 0x2d,
    0xf9, 0xb9, 0xa6, 0xe3, 0xdf, 0xb3, 0xf0, 0x2e, 0xe9, 0x7f, 0xda, 0xc0,
    0xf6, 0xf0, 0x4, 0xda, 0xef, 0xf8, 0x1e, 0xe5, 0xf4, 0xd4, 0xf, 0xd7,
    0xfc, 0xe3, 0xaa, 0x1d, 0xf1, 0xef, 0x1a, 0xd5, 0x4, 0x13, 0xfa, 0xe0,
    0x10, 0xd7, 0x5, 0xc, 0xe9, 0x5, 0xcf, 0xce, 0x36, 0x36, 0x26, 0xc7,
    0xd7, 0xda, 0x5, 0xc6, 0x1a, 0xfc, 0xc5, 0x27, 0xbd, 0xdb, 0xd1, 0x2,
    0xe9, 0xe4, 0xfc, 0xad, 0x5, 0x10, 0xdf, 0xdc, 0x15, 0x1e, 0xec, 0x0,
    0xcf, 0xe, 0xf8, 0xd5, 0xe8, 0x4, 0xf5, 0x6, 0x8, 0xf, 0xdd, 0x0,
    0xe, 0x21, 0xf3, 0xd9, 0x12, 0x17, 0xfa, 0xf1, 0x6, 0xf8, 0xef, 0xf5,
    0xf6, 0xda, 0x3b, 0x2a, 0xfa, 0xb, 0x1f, 0xc, 0xde, 0xff, 0xde, 0xdd,
    0xe6, 0xea, 0xf4, 0xfb, 0x19, 0x16, 0x10, 0x14, 0x18, 0xc, 0x7, 0x9,
    0xe5, 0xe1, 0xeb, 0x2f, 0x2a, 0x3, 0xdd, 0xf2, 0x4, 0x9, 0xf3, 0x4,
    0x7, 0xf6, 0xe4, 0xfa, 0x37, 0xc, 0xf7, 0x11, 0x11, 0x7, 0x4, 0xf8,
    0xe6, 0xed, 0x22, 0xe4, 0xdf, 0xe0, 0xf1, 0xa, 0xeb, 0xf8, 0xfe, 0xff,
    0xd4, 0xd0, 0xfa, 0xf, 0xfd, 0xed, 0xf6, 0xd8, 0x0, 0xff, 0xfc, 0xfc,
    0xea, 0xf4, 0xf9, 0x6, 0x12, 0xe2, 0xe8, 0x10, 0xed, 0x17, 0xfc, 0xec,
    0x18, 0x16, 0x1f, 0x1, 0x16, 0xfc, 0x13, 0xe4, 0x0, 0x5, 0x1d, 0xe0,
    0xde, 0xe4, 0xfa, 0x1b, 0xe9, 0xeb, 0xf8, 0xf4, 0xfa, 0xf7, 0x14, 0x1,
    0xea, 0x2b, 0xe, 0xf7, 0x13, 0xf3, 0xef, 0xe8, 0x8, 0x13, 0xfc, 0x8,
    0x2, 0x0, 0x0, 0x12, 0x2e, 0x5, 0x31, 0xfa, 0x4, 0xde, 0x24, 0xf6,
    0x7, 0x17, 0xf5, 0xfb, 0xfd, 0x1, 0x19, 0xf1, 0x4, 0xda, 0xc, 0x1e,
    0x12, 0xfc, 0xeb, 0x4c, 0xfb, 0xd0, 0xf8, 0xec, 0x22, 0xea, 0xcd, 0xec,
    0x20, 0x4, 0x2f, 0x10, 0x28, 0x1b, 0x22, 0x2a, 0x5, 0xfe, 0xf1, 0x13,
    0xe6, 0x2, 0x30, 0xfb, 0x2d, 0xf0, 0xf2, 0x7, 0x7f, 0x24, 0xe9, 0x18,
    0xc5, 0xfb, 0x6, 0xf0, 0x31, 0xed, 0x5, 0xf8, 0x42, 0x17, 0x14, 0x27,
    0xf2, 0xf1, 0x4f, 0xf7, 0x2, 0x14, 0x3c, 0x70, 0x3a, 0xc9, 0x19, 0xd5,
    0x50, 0x28, 0x7, 0xe9, 0x38, 0x18, 0x6, 0xf3, 0xf3, 0x11, 0x10, 0xd8,
    0xea, 0xe0, 0x9a, 0x8, 0xff, 0x0, 0xd6, 0xfb, 0xa2, 0x21, 0xd8, 0x49,
    0xc, 0x63, 0xf5, 0x16, 0x13, 0x12, 0xcc, 0xe8, 0xc3, 0x8, 0xff, 0x2,
    0xb6, 0xf0, 0x14, 0x7, 0xee, 0xff, 0x18, 0x7, 0x9, 0xdc, 0x16, 0x0,
    0x4, 0x36, 0xf4, 0x41, 0xc3, 0x4f, 0x17, 0xdf, 0xe4, 0x5, 0xfd, 0xf6,
    0xcc, 0xdb, 0x11, 0x0, 0xea, 0xfc, 0x12, 0x3c, 0x8, 0xfa, 0xed, 0xf,
    0xf2, 0x18, 0xed, 0xab, 0x2, 0xa9, 0x8, 0x2, 0x3b, 0xff, 0x3e, 0xb7,
    0xc7, 0x97, 0xc5, 0x7, 0xfb, 0xe3, 0x3a, 0x49, 0x18, 0xfd, 0xb, 0xac,
    0x13, 0xc, 0x39, 0x3b, 0x1b, 0xfa, 0xb1, 0x1a, 0x2c, 0xf9, 0xd8, 0xf8,
    0xee, 0xec, 0xdc, 0xf1, 0xbf, 0xa9, 0xe4, 0xf5, 0x6d, 0xdb, 0xc7, 0xc,
    0xe8, 0x96, 0xa5, 0xf4, 0xed, 0x6, 0xc2, 0x14, 0xee, 0x20, 0xf2, 0xff,
    0xe3, 0xdb, 0xbe, 0xd8, 0xe7, 0x50, 0x3, 0x38, 0x15, 0x1, 0xf4, 0xed,
    0x2f, 0x18, 0xee, 0x5, 0xfa, 0x1, 0xf3, 0xbd, 0xf, 0xea, 0xd1, 0x7,
    0x81, 0x4, 0xff, 0xea, 0xdf, 0xda, 0xed, 0xe2, 0xf8, 0x6, 0xef, 0xf2,
    0x1, 0xe5, 0xfb, 0xd6, 0xcd, 0xee, 0xf7, 0xe, 0xcc, 0x5, 0xfb, 0xf2,
    0xf6, 0xb, 0x4, 0x20, 0xf, 0x12, 0x2a, 0xe, 0xe8, 0xd, 0xf7, 0xe6,
    0x11, 0xff, 0x1, 0x19, 0xef, 0x3, 0x7, 0xe0, 0x6, 0xeb, 0xe7, 0xf0,
    0xe6, 0xd2, 0x5, 0xd2, 0xd9, 0x0, 0xf0, 0xfe, 0xfd, 0xc, 0x37, 0x27,
    0xe, 0x22, 0x11, 0x5, 0xd9, 0x16, 0xe, 0x34, 0x2a, 0xe2, 0xd, 0xe2,
    0x10, 0xf4, 0x6, 0x31, 0xed, 0xcc, 0x10, 0xf1, 0x24, 0x12, 0xd0, 0xf5,
    0xe3, 0xfc, 0x5, 0xe4, 0xf4, 0xed, 0xad, 0xf1, 0xf7, 0xcb, 0xee, 0xe9,
    0x2a, 0x7, 0xe4, 0xd7, 0xf8, 0xe6, 0xec, 0xe0, 0xd5, 0xe3, 0xf6, 0xc6,
    0xf5, 0xed, 0x1, 0x10, 0xdb, 0x0, 0xff, 0x4, 0xf5, 0xf6, 0xc, 0xf9,
    0xf4, 0x9, 0xf3, 0xf7, 0x10, 0x1, 0xfe, 0xef, 0x14, 0x16, 0x39, 0xff,
    0xb, 0x0, 0xf, 0xed, 0x12, 0xf2, 0x1e, 0x1a, 0x10, 0xea, 0xe1, 0x6,
    0x1, 0x23, 0x14, 0xf7, 0xeb, 0x19, 0xfb, 0x8, 0xec, 0xf6, 0xf6, 0xec,
    0xb, 0xc, 0x11, 0x10, 0x8, 0x25, 0xed, 0x1c, 0x0, 0x2, 0xff, 0x26,
    0xe8, 0x17, 0x13, 0xf5, 0xc, 0xfc, 0xf, 0xf2, 0xf9, 0xf6, 0x2e, 0x9,
    0x24, 0xdc, 0xf5, 0x1e, 0xf, 0xee, 0xf9, 0x39, 0xf8, 0x19, 0xec, 0xc7,
    0xee, 0x18, 0x2d, 0xfc, 0x40, 0x1a, 0xa, 0x10, 0xe, 0xdb, 0x31, 0xc4,
    0x3, 0x2a, 0xf3, 0x44, 0xfc, 0x7, 0x23, 0xf3, 0x12, 0xe1, 0x33, 0xd2,
    0x2e, 0x47, 0xc0, 0xea, 0xd7, 0xf2, 0x14, 0xc4, 0x66, 0xe7, 0x3c, 0xee,
    0x10, 0xf7, 0xd5, 0x28, 0x7, 0xe7, 0x24, 0xfb, 0xd6, 0x1b, 0xa, 0xd2,
    0x37, 0x32, 0xfb, 0x6, 0x21, 0xc7, 0xfe, 0x31, 0x3, 0xff, 0xdd, 0x14,
    0xed, 0x5a, 0xe4, 0xe4, 0xfa, 0xc3, 0x10, 0xbf, 0x4c, 0x81, 0x1f, 0x46,
    0x28, 0x13, 0xf5, 0xd, 0xe1, 0x8, 0x8, 0x18, 0x1e, 0xea, 0x5, 0xc6,
    0x2, 0x15, 0x32, 0xb9, 0xea, 0xd7, 0xf6, 0xe4, 0xea, 0x20, 0xb, 0xfd,
    0x17, 0x7, 0x36, 0x3, 0xf5, 0x17, 0x18, 0x10, 0xc7, 0x4, 0x2, 0xde,
    0xfa, 0xe1, 0x16, 0xdd, 0xe0, 0xfd, 0x12, 0xd8, 0x33, 0xe1, 0x18, 0xd,
    0xfd, 0x4, 0x22, 0x4, 0x17, 0xc8, 0xe, 0xf4, 0x5, 0x3, 0x0, 0xf2,
    0xf1, 0x0, 0xc, 0xbf, 0xff, 0xfe, 0xf7, 0x1b, 0xdb, 0x14, 0xf2, 0x2,
    0xda, 0xd2, 0xf5, 0xf9, 0xf0, 0xe, 0xf3, 0xf8, 0xfc, 0x15, 0x4a, 0xf1,
    0x5, 0xb, 0xe3, 0xf, 0xf2, 0xef, 0xdf, 0xe2, 0xec, 0x4, 0xda, 0x5,
    0x21, 0x3c, 0x20, 0x2, 0xf7, 0x17, 0x20, 0xf9, 0xf2, 0xf9, 0x2e, 0xf6,
    0x4, 0x19, 0xfc, 0x22, 0x1, 0xd2, 0x43, 0xdf, 0xf8, 0xf3, 0xff, 0x2f,
    0xf2, 0xf4, 0xbb, 0x31, 0xed, 0xf3, 0x21, 0x6, 0xff, 0xf3, 0xf5, 0x10,
    0x6, 0xd9, 0xe9, 0xc, 0x16, 0x17, 0x31, 0xd, 0xf8, 0x2a, 0xdb, 0xff,
    0x1e, 0xf4, 0x14, 0x2f, 0x20, 0xf4, 0x96, 0xe, 0x25, 0x12, 0xcc, 0xd8,
    0x2c, 0xb2, 0x30, 0x1, 0x4, 0xf8, 0x27, 0x1, 0xc6, 0x81, 0xc1, 0xdd,
    0x1e, 0xf3, 0x5, 0x14, 0xc6, 0x18, 0x31, 0xf4, 0x33, 0x9, 0x4c, 0x1d,
    0x7, 0xf6, 0xcd, 0x23, 0xde, 0xe2, 0xec, 0xe4, 0x13, 0xe2, 0xea, 0x1,
    0xfa, 0x26, 0x2f, 0xd6, 0x32, 0x3, 0x26, 0xf9, 0x1e, 0x19, 0xcb, 0xd5,
    0x2, 0x2d, 0xe7, 0x1, 0xd, 0xb8, 0xe2, 0xb8, 0x1d, 0x4, 0xf5, 0xb0,
    0xe2, 0xc3, 0x1b, 0xe, 0x9, 0x27, 0x11, 0xf3, 0x27, 0xeb, 0x3a, 0xee,
    0x3a, 0x35, 0xe, 0x49, 0xba, 0x29, 0x8, 0xd5, 0xc6, 0xff, 0x35, 0xdf,
    0xbb, 0xe2, 0xe8, 0xc4, 0xb3, 0xc, 0xaf, 0x24, 0x1c, 0xe8, 0x7, 0x1a,
    0x2e, 0xe5, 0x4b, 0x8, 0x13, 0xe3, 0xde, 0x5, 0xe5, 0xcd, 0xed, 0x16,
    0xc7, 0xcd, 0xea, 0x1, 0xdf, 0xa4, 0xf6, 0x2b, 0x42, 0x0, 0xc4, 0xd3,
    0x2, 0xe1, 0xd3, 0xca, 0x81, 0xb7, 0xeb, 0xda, 0x3a, 0xdc, 0x12, 0x5,
    0xc6, 0x1, 0xc8, 0xb3, 0xa3, 0xb4, 0xc4, 0xea, 0xf8, 0xeb, 0xf5, 0xc4,
    0x13, 0xd6, 0x1b, 0xd0, 0x17, 0xe, 0xf, 0x9, 0xb2, 0xc3, 0xf7, 0xde,
    0xf9, 0x13, 0x9e, 0xdc, 0xfa, 0xe3, 0x4, 0xe9, 0xc0, 0xcb, 0x6, 0xd2,
    0x11, 0xd5, 0x4, 0xf1, 0x33, 0xf5, 0x42, 0xec, 0xc, 0x0, 0xe3, 0x16,
    0xb4, 0x1c, 0xd5, 0xd8, 0x1d, 0x4, 0xea, 0x3, 0xc7, 0xd5, 0xb3, 0x1e,
    0x17, 0xd, 0xb, 0xd6, 0xf3, 0x59, 0xdf, 0xf8, 0xff, 0xd3, 0xdf, 0x2c,
    0xd, 0x24, 0xf3, 0x44, 0xe, 0x4, 0x12, 0xdf, 0x19, 0x56, 0xca, 0xd5,
    0xf4, 0xf5, 0xf2, 0xcb, 0xe6, 0xe5, 0x11, 0x1d, 0xf1, 0xf0, 0x3f, 0xe,
    0xf4, 0xe1, 0xd6, 0xc5, 0x9, 0xd2, 0xf6, 0xb, 0x13, 0x3, 0xd4, 0xe9,
    0xcb, 0xe6, 0x8, 0xdf, 0xfb, 0x5, 0xc, 0x2, 0x6, 0x2a, 0xd6, 0xeb,
    0xf9, 0x2c, 0x5, 0x2a, 0x39, 0x33, 0xf1, 0xf2, 0x3b, 0xe6, 0xd9, 0xdd,
    0xfb, 0xd1, 0xac, 0xe4, 0xbf, 0xf6, 0xe8, 0xc8, 0xe6, 0xa9, 0xc6, 0xfe,
    0x7, 0xd3, 0xd0, 0x2a, 0xea, 0xfc, 0x1f, 0xfc, 0xee, 0xe2, 0xbb, 0xe2,
    0x1a, 0xf5, 0xcd, 0xaf, 0xba, 0x2b, 0xb7, 0xf6, 0xf6, 0xd7, 0x2b, 0xe,
    0xe0, 0xc8, 0x6f, 0x2a, 0xbd, 0xf8, 0xda, 0xa4, 0xcc, 0xb5, 0xf8, 0xff,
    0x48, 0x47, 0x2a, 0xda, 0xf9, 0xe4, 0x2c, 0x2c, 0x55, 0x5d, 0x7f, 0xd8,
    0x25, 0x2d, 0xc2, 0x94, 0x3c, 0x0, 0xe4, 0x13, 0xe9, 0x5d, 0x36, 0xd6,
    0xe0, 0xee, 0xe8, 0x8d, 0xb9, 0xe1, 0xd, 0xcf, 0xad, 0xd5, 0xce, 0x30,
    0x38, 0xcf, 0xe, 0xff, 0xe7, 0x1e, 0xe4, 0xec, 0xb5, 0xed, 0xfb, 0x10,
    0x9, 0x91, 0x20, 0xe3, 0xb1, 0xaf, 0x44, 0xb3, 0x5c, 0x1f, 0xff, 0x32,
    0xfc, 0xf2, 0xac, 0x10, 0xd6, 0xc9, 0xf6, 0xdd, 0x33, 0xcf, 0xaa, 0xe6,
    0xa, 0x8, 0xfe, 0xd2, 0x12, 0xa, 0x9, 0xe6, 0x12, 0x0, 0xea, 0xf0,
    0xa1, 0xfe, 0xe8, 0xce, 0x2d, 0x1f, 0x19, 0xd, 0xd3, 0xf1, 0x1b, 0x3,
    0xc4, 0x2d, 0x39, 0xe3, 0xdb, 0x38, 0xd7, 0xf4, 0x14, 0xb1, 0xba, 0xdd,
    0xdf, 0xf5, 0x3, 0x15, 0x11, 0xf6, 0x14, 0xea, 0xc8, 0x9, 0x3, 0xf5,
    0xd0, 0xd8, 0xeb, 0x2, 0xf9, 0x19, 0xd, 0xde, 0xea, 0x2d, 0x35, 0xd5,
    0xa5, 0xf8, 0x1c, 0xfc, 0xeb, 0xa2, 0xe, 0xe4, 0xe9, 0x2f, 0x0, 0xf7,
    0xf, 0xc0, 0xf9, 0xf4, 0xe5, 0xde, 0xa9, 0xb6, 0xd9, 0x21, 0x8, 0xca,
    0xcc, 0x4, 0xf7, 0xe4, 0xd2, 0xbe, 0xb9, 0xf5, 0xd7, 0xd8, 0xbd, 0xf0,
    0xb7, 0xc, 0xf4, 0xe1, 0x46, 0x15, 0x9, 0xe3, 0x22, 0xf4, 0xff, 0xff,
    0x4, 0x0, 0x0, 0x0, 0x0, 0x8, 0x0, 0x0, 0xa, 0xfc, 0xd9, 0x27,
    0x4d, 0xd0, 0x5d, 0x47, 0x2b, 0xcc, 0xf2, 0xa0, 0xf, 0x20, 0xe1, 0x1d,
    0x31, 0xc, 0xf9, 0x5a, 0x9, 0x48, 0x46, 0xce, 0xa, 0x4, 0x13, 0x6c,
    0x3, 0x43, 0xb5, 0x43, 0x41, 0x17, 0x34, 0xe5, 0x54, 0xbe, 0x33, 0x36,
    0xe7, 0x4d, 0xd4, 0xc4, 0x49, 0xe8, 0xf1, 0xfa, 0x4c, 0xe7, 0xd7, 0x33,
    0xf0, 0x57, 0xb4, 0x47, 0xf4, 0xa1, 0x7f, 0xe4, 0xcb, 0x6f, 0xda, 0xba,
    0xf2, 0x20, 0xe6, 0x65, 0xfc, 0xf1, 0xe1, 0x56, 0xf0, 0xfb, 0xc, 0x99,
    0x14, 0xba, 0xeb, 0xbd, 0xa, 0x21, 0xef, 0x1e, 0x37, 0x5, 0x1d, 0xc8,
    0x32, 0xe6, 0xae, 0x3b, 0xce, 0x24, 0xd4, 0x4, 0x30, 0xc5, 0x81, 0xfb,
    0x44, 0xf, 0x30, 0x4c, 0x1d, 0x44, 0x14, 0x6, 0x5a, 0xcd, 0xf8, 0x51,
    0xfb, 0x43, 0x3e, 0x2b, 0xe5, 0x27, 0xe0, 0xbc, 0xdd, 0x14, 0x32, 0xef,
    0x26, 0xd6, 0xb, 0xd6, 0xe, 0xeb, 0xe0, 0xf, 0x32, 0xc, 0x1e, 0xdc,
    0x22, 0xde, 0xdc, 0xcb, 0xe, 0xf, 0x9, 0x53, 0xec, 0xd8, 0xb3, 0xc8,
    0x0, 0x5f, 0xe5, 0xfd, 0xff, 0x11, 0x28, 0xf4, 0x4e, 0x4, 0xc5, 0x7,
    0x2d, 0xe2, 0x4e, 0xe, 0x3e, 0xe9, 0xc7, 0x5e, 0xca, 0x25, 0x18, 0x8,
    0x55, 0xdb, 0xbb, 0xc, 0x4, 0xe1, 0x49, 0xe5, 0xd2, 0x7f, 0xc7, 0xb3,
    0xef, 0xcd, 0x49, 0xf3, 0x4e, 0x73, 0xe9, 0xe2, 0xb2, 0xc5, 0x12, 0xd2,
    0xec, 0x2d, 0xf9, 0xd7, 0x2, 0x1e, 0xb4, 0xf5, 0xa9, 0xb2, 0xdf, 0x0,
    0xeb, 0x81, 0x19, 0x1, 0x15, 0x13, 0xea, 0x1c, 0xcb, 0x9c, 0xcc, 0x1b,
    0xf2, 0xe3, 0xcc, 0xf0, 0xf5, 0xea, 0x1d, 0xe2, 0x0, 0xfe, 0xeb, 0xf8,
    0xf8, 0xe, 0x6, 0x1d, 0xf5, 0x32, 0xf1, 0xc8, 0xeb, 0xf0, 0xfe, 0x13,
    0xf6, 0x12, 0x8, 0x26, 0xfb, 0xfd, 0x6, 0x13, 0xe9, 0xf3, 0xf0, 0x12,
    0xb4, 0x6, 0xb, 0x3, 0x1f, 0xc6, 0x3b, 0x43, 0x1a, 0xe6, 0xd8, 0xc1,
    0x6, 0x29, 0xd9, 0x14, 0xcf, 0x3, 0x5c, 0x20, 0x77, 0xa, 0x3e, 0x32,
    0x32, 0x4e, 0xc, 0x1f, 0xa4, 0xe6, 0xf8, 0xc0, 0x4d, 0xfc, 0xe4, 0x1e,
    0x41, 0x92, 0xc7, 0xc1, 0x86, 0x4a, 0x93, 0xca, 0xbc, 0x8, 0xe8, 0xe3,
    0xda, 0xa8, 0x9c, 0x41, 0xd2, 0xe1, 0xe3, 0x28, 0xf2, 0xdd, 0x7f, 0xcd,
    0xc7, 0xf3, 0x5, 0xd7, 0x7f, 0x1d, 0x23, 0x7, 0xca, 0x2a, 0xe2, 0xbd,
    0xca, 0x77, 0x48, 0x32, 0x32, 0x16, 0x5c, 0xb9, 0x33, 0x18, 0xa, 0x11,
    0xc6, 0x9a, 0xd9, 0x36, 0xea, 0x1d, 0x49, 0xc5, 0xc2, 0x1c, 0xc, 0xda,
    0xb4, 0x23, 0x92, 0xb2, 0xe1, 0x4b, 0x30, 0x3, 0x3d, 0xd2, 0xe8, 0x23,
    0x1e, 0x3f, 0xe4, 0x1f, 0xb2, 0x1c, 0x7, 0xb9, 0x1e, 0x96, 0x5e, 0xe4,
    0xc6, 0xff, 0xb8, 0x14, 0xb9, 0xd3, 0x1a, 0x63, 0x12, 0xed, 0xd7, 0x64,
    0x47, 0xff, 0xfe, 0x58, 0x21, 0xbc, 0x9, 0xa6, 0x7, 0x30, 0xb8, 0x2,
    0x81, 0x1e, 0x3f, 0x23, 0x3b, 0x16, 0xf6, 0x3, 0x29, 0xf0, 0x22, 0x13,
    0x7a, 0xa9, 0xc5, 0x20, 0xcc, 0x10, 0x39, 0xc0, 0x3c, 0xca, 0xec, 0x30,
    0xa3, 0x29, 0x6, 0x0, 0xf9, 0xec, 0x20, 0x24, 0x65, 0xbf, 0xe3, 0x3d,
    0xf6, 0x66, 0xd4, 0x6a, 0xf2, 0xbf, 0x7a, 0x98, 0x18, 0x40, 0xd0, 0xa4,
    0x54, 0xdb, 0xbd, 0x53, 0xfe, 0xb5, 0xe6, 0xf6, 0xf, 0xe4, 0x2e, 0xed,
    0x26, 0x1b, 0x21, 0xd2, 0xe4, 0x34, 0xd, 0xe7, 0xd6, 0xcb, 0x3b, 0xd2,
    0x62, 0xed, 0xa, 0xd6, 0x6a, 0x81, 0x9, 0x73, 0xd8, 0x56, 0xf, 0x1a,
    0x1b, 0xc0, 0xa, 0x2d, 0xfe, 0xef, 0x1e, 0x26, 0x3e, 0xe7, 0x18, 0xe,
    0x47, 0xfa, 0x5d, 0xed, 0x2e, 0x12, 0xb4, 0xf6, 0xe0, 0xf4, 0x32, 0xdc,
    0xdb, 0x1f, 0xfa, 0xdf, 0xae, 0x58, 0xa0, 0x1f, 0x17, 0xda, 0x46, 0x3,
    0x31, 0xa4, 0x22, 0xd3, 0xf4, 0x4, 0xb3, 0xf7, 0x38, 0x24, 0x14, 0x47,
    0x7f, 0xfc, 0x7e, 0xaa, 0x3e, 0x2, 0x2d, 0x2a, 0xc2, 0x5c, 0xda, 0x14,
    0x4d, 0x2f, 0xf5, 0x44, 0x52, 0xf5, 0xfc, 0x4f, 0xf1, 0x69, 0x9e, 0xd7,
    0x3f, 0x85, 0xd4, 0x12, 0xf5, 0x13, 0x13, 0xaa, 0x8, 0xd7, 0xe1, 0x13,
    0x57, 0xd2, 0x22, 0xb5, 0x50, 0x50, 0x2d, 0xdd, 0x5b, 0x50, 0xf8, 0x25,
    0x2e, 0xf8, 0x41, 0x45, 0xf4, 0xf, 0x3f, 0x19, 0x59, 0x71, 0x40, 0xf8,
    0x12, 0x61, 0x26, 0x34, 0x4, 0x1f, 0x2d, 0x8, 0x7, 0x7f, 0x7b, 0x13,
    0x51, 0x3d, 0x15, 0x12, 0x43, 0x29, 0x12, 0x5a, 0x49, 0x31, 0x7, 0x19,
    0x2b, 0x3, 0x2d, 0xe, 0x3f, 0x32, 0x31, 0x41, 0x29, 0x22, 0x27, 0xff,
    0x1f, 0xf6, 0x17, 0x8, 0x21, 0x1f, 0xee, 0x12, 0x8, 0x5, 0x5, 0x26,
    0x50, 0x42, 0xbd, 0x5e, 0x3b, 0xe6, 0x34, 0x40, 0x28, 0xa1, 0x30, 0x1c,
    0x7f, 0x38, 0x29, 0xf2, 0x19, 0x43, 0x2, 0x22, 0xfe, 0xff, 0x3e, 0xeb,
    0x40, 0x73, 0x59, 0x33, 0x25, 0x4e, 0xe5, 0xf9, 0x64, 0x59, 0xfc, 0x53,
    0x8, 0x6, 0x5d, 0x49, 0x33, 0x10, 0x34, 0xeb, 0x44, 0x13, 0xdb, 0x59,
    0xc, 0x7, 0x4e, 0xec, 0x28, 0xf5, 0xe6, 0xf, 0x4f, 0xa9, 0x19, 0xe3,
    0x1e, 0x52, 0x2f, 0xbd, 0x35, 0xf8, 0x48, 0x21, 0x5c, 0xfb, 0x35, 0x29,
    0xed, 0x13, 0x42, 0x5a, 0x69, 0x31, 0x4a, 0xfa, 0x2a, 0x12, 0x7, 0x4a,
    0x11, 0x37, 0x49, 0xd, 0x3, 0x7f, 0x24, 0xf9, 0x34, 0x2f, 0x40, 0x29,
    0x38, 0x22, 0xb, 0x60, 0x2b, 0x21, 0x23, 0x3b, 0xeb, 0x12, 0xed, 0x28,
    0x3e, 0x44, 0x3e, 0x37, 0x25, 0x27, 0x3d, 0x1e, 0x1b, 0x19, 0x2c, 0xc,
    0x59, 0xa, 0xac, 0x65, 0x3d, 0x0, 0xf5, 0x3d, 0xff, 0xc4, 0x72, 0xfe,
    0xbd, 0x7f, 0xf9, 0xe8, 0xbc, 0x1a, 0x47, 0x42, 0xe8, 0xf3, 0x2, 0xc9,
    0xd, 0xf, 0xf4, 0xcf, 0x2, 0x19, 0xf1, 0x37, 0xdc, 0xdf, 0xe, 0x9,
    0xd1, 0xdf, 0x44, 0xf2, 0xef, 0x27, 0x6, 0xe0, 0xe6, 0xcc, 0xfb, 0xd1,
    0x23, 0xec, 0x17, 0x49, 0xf0, 0x4e, 0xf6, 0x7, 0xc5, 0x1, 0x10, 0x4b,
    0x2e, 0xe6, 0x34, 0xfb, 0xff, 0xfb, 0xcb, 0x57, 0xd9, 0xcf, 0x2f, 0x54,
    0xbd, 0xbd, 0x2a, 0xd3, 0xe1, 0x38, 0xdc, 0xbb, 0xd, 0x5, 0xc8, 0xeb,
    0x93, 0xa7, 0xdb, 0x18, 0xf4, 0x81, 0x2b, 0xf3, 0x18, 0x10, 0xd0, 0x17,
    0xbf, 0x97, 0xac, 0x1b, 0xfb, 0xd5, 0xe0, 0xe7, 0xe5, 0xec, 0x15, 0xd2,
    0xe8, 0xeb, 0xea, 0xf0, 0xf4, 0x2c, 0xf6, 0x29, 0x4, 0x2f, 0xdc, 0xb7,
    0xec, 0xfd, 0xee, 0x31, 0x10, 0x24, 0xfa, 0x1a, 0xdc, 0xf1, 0x2, 0x0,
    0xef, 0xff, 0xc5, 0x26, 0xea, 0x3c, 0xfb, 0xbe, 0xd1, 0x1d, 0x25, 0xa,
    0xc1, 0x42, 0x3, 0xf1, 0x2e, 0xe, 0x4c, 0xae, 0x2e, 0x45, 0xee, 0xf4,
    0xd3, 0x81, 0xe4, 0x41, 0xf0, 0x14, 0x3c, 0xb7, 0x3, 0xe7, 0x2f, 0xfd,
    0xff, 0x24, 0xda, 0xe1, 0x2c, 0x50, 0x44, 0xcc, 0xd9, 0xa, 0x25, 0x19,
    0xc4, 0xc, 0xf8, 0xfa, 0xdf, 0xe8, 0xfa, 0xee, 0x1d, 0xad, 0x60, 0xef,
    0xd9, 0x45, 0xc2, 0x3b, 0xe4, 0xdc, 0x38, 0xe, 0x16, 0xf7, 0x70, 0xb2,
    0xf4, 0x46, 0xe2, 0x2c, 0xed, 0x5d, 0x1f, 0x61, 0xa, 0xd6, 0x26, 0x10,
    0x2e, 0xe0, 0x3b, 0xd6, 0x1c, 0xf8, 0xe0, 0x5e, 0xd3, 0xa6, 0x23, 0x42,
    0xf3, 0x41, 0xf9, 0x20, 0xba, 0xee, 0xa, 0x18, 0xde, 0x25, 0xeb, 0xf5,
    0x4c, 0x17, 0xf7, 0x10, 0xd5, 0x43, 0x91, 0xbc, 0x5, 0xf6, 0xf3, 0xef,
    0x21, 0x2, 0x7f, 0x2, 0x0, 0x51, 0xca, 0x35, 0xcf, 0xdd, 0xe7, 0x56,
    0xae, 0xc2, 0x21, 0xed, 0xe9, 0x12, 0xe6, 0xc8, 0xf9, 0xff, 0xc1, 0xe3,
    0x9e, 0xbc, 0xcb, 0x8, 0xfc, 0x81, 0x12, 0xfd, 0x10, 0x8, 0xd6, 0x22,
    0xcc, 0xa9, 0xb7, 0xf, 0xe5, 0xe0, 0xc9, 0xfc, 0xe9, 0xc3, 0xf, 0xd6,
    0xf9, 0xe9, 0xf4, 0xe7, 0xf0, 0x24, 0x1, 0x14, 0xf1, 0x24, 0xec, 0x9b,
    0xe9, 0xdc, 0xf3, 0x19, 0xfa, 0x17, 0xd, 0x1b, 0xf9, 0xb, 0x0, 0x6,
    0xdf, 0xb, 0xf2, 0x19, 0x16, 0xb, 0xcf, 0x2, 0x1a, 0xc2, 0xdc, 0xd9,
    0x25, 0x16, 0xf9, 0xfe, 0xf, 0x4a, 0xe2, 0x30, 0xbf, 0xe6, 0xf6, 0x10,
    0x6, 0x16, 0x32, 0xe0, 0xff, 0x34, 0x20, 0x81, 0x4b, 0xad, 0x4, 0x45,
    0xf9, 0x21, 0xf, 0x30, 0xa, 0xe3, 0xed, 0x21, 0xcc, 0x17, 0xeb, 0xf0,
    0xbf, 0xfb, 0xfb, 0xde, 0x2f, 0xf3, 0x53, 0x23, 0xe5, 0x4, 0xf2, 0x16,
    0x24, 0xee, 0xd1, 0xec, 0xe8, 0xfa, 0xcf, 0xfc, 0x15, 0x6, 0xae, 0x41,
    0x21, 0xf1, 0x2c, 0xc9, 0x15, 0xea, 0x7, 0xf3, 0xfb, 0x2b, 0xf1, 0x40,
    0xe5, 0xf1, 0x25, 0x32, 0xfa, 0x4e, 0x50, 0xe, 0xf8, 0x2, 0x2a, 0xe6,
    0x68, 0xc6, 0xf5, 0x35, 0x26, 0x1a, 0x43, 0x0, 0xdf, 0xc9, 0xf1, 0x1c,
    0xd6, 0x43, 0x28, 0x1, 0xf0, 0xd3, 0x8, 0xf3, 0x17, 0xf1, 0x2b, 0xfd,
    0xe8, 0x7f, 0xde, 0x16, 0x1b, 0xcc, 0x54, 0xc9, 0xe4, 0x5c, 0xe9, 0xe1,
    0x10, 0xf0, 0x9e, 0x69, 0x69, 0xcf, 0x12, 0xa6, 0x46, 0xfd, 0x1, 0xe4,
    0x30, 0x61, 0xd9, 0x52, 0xed, 0x2a, 0xe3, 0xc, 0xdd, 0xee, 0x2c, 0xc4,
    0x5f, 0x11, 0x32, 0xa4, 0x53, 0x87, 0xe1, 0x7f, 0x25, 0x3c, 0x15, 0x51,
    0xe8, 0xe6, 0x5, 0x57, 0xc5, 0x1a, 0xa, 0xd9, 0x73, 0xc7, 0xfe, 0xfb,
    0x1b, 0xc8, 0x58, 0x21, 0xab, 0x9, 0xc6, 0x2b, 0xf6, 0xf0, 0xfe, 0xb8,
    0xe0, 0x15, 0xc2, 0x5, 0xfa, 0x66, 0xb1, 0x2b, 0x41, 0x14, 0xf3, 0x2a,
    0x8d, 0xcf, 0x25, 0x62, 0x20, 0x6d, 0x1f, 0xe2, 0x4f, 0xea, 0x2a, 0x10,
    0x6, 0xf3, 0x52, 0xdc, 0xeb, 0x50, 0x27, 0x26, 0xfb, 0xf6, 0xc9, 0xfe,
    0x10, 0x2d, 0xb, 0xe9, 0xea, 0xab, 0x21, 0xa9, 0xdf, 0x7, 0x21, 0xe5,
    0x7f, 0xd9, 0x20, 0xd9, 0x25, 0x37, 0xf7, 0xe7, 0xc, 0x1, 0xa2, 0x1c,
    0x1f, 0x15, 0xf9, 0xe7, 0xe8, 0xcd, 0xd2, 0xd6, 0x28, 0xfe, 0x8d, 0x34,
    0xf2, 0x2c, 0xf1, 0xc7, 0x48, 0xa, 0x16, 0xad, 0xbc, 0x8, 0xf4, 0x4b,
    0xe, 0x4b, 0xc1, 0x5a, 0x71, 0xf8, 0x7f, 0xf0, 0x27, 0x2b, 0x52, 0xac,
    0x51, 0x55, 0xf7, 0x9d, 0x4b, 0xae, 0x67, 0x65, 0xee, 0xd6, 0xd4, 0x4c,
    0xec, 0xc0, 0x9, 0xeb, 0xf3, 0x91, 0xdd, 0xfa, 0xe5, 0x30, 0xf7, 0x7c,
    0xd1, 0xae, 0xd1, 0x19, 0x4a, 0xcc, 0x28, 0xc4, 0x72, 0xc9, 0xe6, 0xc6,
    0x4b, 0x43, 0x5, 0x26, 0x15, 0xf6, 0x1b, 0x36, 0x0, 0x36, 0x63, 0x64,
    0x4f, 0x34, 0x54, 0xee, 0x15, 0x4e, 0x3, 0x1a, 0xf7, 0xc, 0x35, 0xf6,
    0xc, 0x7f, 0x77, 0x1b, 0x4c, 0x3c, 0x42, 0x2d, 0x39, 0x28, 0xa, 0x20,
    0x36, 0x43, 0xfb, 0xf2, 0xfa, 0xf9, 0x18, 0x7, 0x43, 0x1f, 0x30, 0x13,
    0xe, 0xf8, 0x35, 0x12, 0x20, 0x8, 0x8, 0x17, 0x59, 0x2, 0x12, 0x15,
    0x36, 0x38, 0x4e, 0x39, 0xfb, 0x2c, 0x9e, 0x19, 0x39, 0xe6, 0x29, 0x63,
    0x8, 0xdd, 0xff, 0xe9, 0x16, 0xbc, 0xc0, 0xca, 0xc6, 0x50, 0xf8, 0x30,
    0x2, 0xd3, 0x1d, 0xcb, 0xfa, 0xaa, 0xe4, 0xa, 0xf1, 0xeb, 0xb, 0x40,
    0xd2, 0xc3, 0xaa, 0xfa, 0x45, 0xe2, 0x12, 0x4a, 0xe2, 0xf7, 0x13, 0x1,
    0x7f, 0xd9, 0x3b, 0x37, 0xc6, 0xee, 0x44, 0xf6, 0x35, 0x31, 0xdc, 0x7,
    0xfd, 0xfb, 0x7b, 0xea, 0x4f, 0x36, 0xe0, 0xcc, 0x54, 0xcc, 0x3d, 0xd7,
    0xa6, 0x42, 0x6, 0xe0, 0x22, 0x4d, 0xc4, 0xf6, 0x33, 0x17, 0x9b, 0x23,
    0x29, 0xde, 0x39, 0x3, 0xa0, 0x37, 0x1c, 0xf7, 0xe7, 0x10, 0xaa, 0x2f,
    0xf2, 0xf7, 0x4c, 0xd2, 0x5, 0xf3, 0xd, 0xed, 0xbd, 0x60, 0xf6, 0xfa,
    0xc, 0xe6, 0xe4, 0x2a, 0xfc, 0x26, 0x24, 0xfb, 0x0, 0x4c, 0xd0, 0xe1,
    0x2c, 0x2e, 0xc, 0x1d, 0xcb, 0x1e, 0xf4, 0x58, 0x6, 0xc1, 0xe7, 0x7f,
    0x5a, 0x37, 0x1b, 0xbc, 0xb6, 0x2a, 0xfe, 0xfa, 0xf8, 0xe8, 0x2d, 0x1e,
    0x6e, 0x5c, 0x50, 0x8d, 0xf5, 0x2f, 0x2d, 0xf1, 0x8b, 0x81, 0xc1, 0xdd,
    0x6, 0xc, 0x28, 0xca, 0xc8, 0x1a, 0x29, 0xf9, 0xe3, 0x23, 0x9e, 0xf7,
    0x9, 0x50, 0x48, 0x3, 0x17, 0xc4, 0x32, 0x46, 0x15, 0x11, 0xe6, 0xc5,
    0xbe, 0x3f, 0xcb, 0xaf, 0x5d, 0xab, 0xf8, 0xc0, 0xc4, 0xd3, 0xc5, 0xd6,
    0xac, 0xf5, 0x15, 0x7d, 0x54, 0xce, 0x56, 0x8, 0x3, 0x41, 0xd8, 0xf0,
    0xdb, 0x35, 0x3c, 0x6f, 0xfc, 0x22, 0x15, 0xcd, 0x2c, 0xfa, 0x18, 0xf,
    0xdd, 0xe5, 0xeb, 0x4, 0xc1, 0x4, 0xd, 0x5, 0xe7, 0xe6, 0x5b, 0xcc,
    0xf3, 0xf, 0x6, 0xb5, 0xca, 0x59, 0x2f, 0xc, 0xe8, 0x19, 0xb4, 0x10,
    0xef, 0x66, 0xf3, 0x14, 0x0, 0x33, 0xfa, 0xde, 0x24, 0xdf, 0x3f, 0xd9,
    0xef, 0x29, 0xf4, 0x3e, 0x39, 0xd2, 0x15, 0x7f, 0xda, 0x42, 0xda, 0x18,
    0xd1, 0xf8, 0x18, 0x54, 0x67, 0xae, 0x8, 0x8f, 0xdc, 0xf9, 0xbe, 0xe,
    0xd1, 0x6d, 0x44, 0x7f, 0x64, 0xc9, 0xf8, 0xdc, 0x3a, 0x2f, 0x37, 0x18,
    0x1c, 0x1c, 0xec, 0x0, 0x5e, 0x28, 0x1e, 0xd7, 0x27, 0xa7, 0xeb, 0x3d,
    0x1b, 0x3a, 0x86, 0xd4, 0x42, 0xb4, 0x12, 0xe4, 0x60, 0x43, 0x2f, 0xde,
    0xf1, 0xcb, 0xd8, 0x67, 0x11, 0xb9, 0x2e, 0xa8, 0x56, 0x42, 0xdd, 0xa8,
    0x7f, 0xf7, 0x16, 0xe9, 0xce, 0x41, 0xee, 0xec, 0xff, 0x37, 0xe5, 0x33,
    0x1b, 0x35, 0x5d, 0xd1, 0x15, 0x12, 0xf5, 0x11, 0xba, 0xf2, 0xc9, 0x16,
    0xfd, 0xfc, 0x17, 0x0, 0xcc, 0x3a, 0x2e, 0xcc, 0xf3, 0xd9, 0xb9, 0xce,
    0xf9, 0x5b, 0xa, 0xf9, 0xf7, 0xf1, 0xb, 0x6, 0xf2, 0xeb, 0x1b, 0x14,
    0xd1, 0x1d, 0xe3, 0xfc, 0x42, 0xc0, 0x36, 0x3, 0xb8, 0xf8, 0xd8, 0x47,
    0xe6, 0xdb, 0x26, 0x71, 0xe4, 0xfe, 0xdf, 0x34, 0x47, 0x20, 0x46, 0x2b,
    0x3a, 0xca, 0x1b, 0x81, 0x9, 0x2b, 0xb, 0x40, 0xfa, 0x4, 0x2d, 0x10,
    0x49, 0x74, 0x43, 0xef, 0x4d, 0x49, 0x2f, 0xd7, 0xfb, 0x51, 0xde, 0x2e,
    0x39, 0xe7, 0xc8, 0xe, 0xf9, 0x1a, 0x4e, 0x56, 0xbb, 0x2b, 0xea, 0x9c,
    0x51, 0xf7, 0xd2, 0xb7, 0x75, 0xf5, 0xce, 0x6e, 0xa4, 0x5, 0xe8, 0x48,
    0x4b, 0xc2, 0x32, 0xb9, 0xb8, 0x6a, 0x4a, 0xbf, 0xa3, 0x1f, 0xf5, 0xe7,
    0xdc, 0x17, 0xce, 0xcb, 0x21, 0xeb, 0x69, 0x66, 0xd4, 0x25, 0xe6, 0xc2,
    0x17, 0xe, 0xec, 0xc3, 0x8f, 0xea, 0xf4, 0x73, 0x1, 0x45, 0xdf, 0x3d,
    0xc5, 0xbe, 0x4f, 0xd6, 0xd4, 0xd0, 0x5, 0xd6, 0xe1, 0x11, 0x48, 0x8,
    0x1c, 0xd7, 0x44, 0x3b, 0xee, 0xfe, 0x4f, 0x22, 0xe2, 0x4b, 0x6, 0xc5,
    0xbd, 0xbb, 0x64, 0xfb, 0xcf, 0x76, 0xab, 0x7f, 0x1d, 0x1, 0x8, 0x51,
    0xa4, 0x2f, 0x5d, 0xe6, 0xe5, 0xfd, 0xc4, 0x12, 0x9, 0x2c, 0x3e, 0xe8,
    0x13, 0xd3, 0xb0, 0x16, 0x27, 0xea, 0xfc, 0x6, 0xe, 0x2d, 0x0, 0x4b,
    0xee, 0x42, 0x0, 0xff, 0xd9, 0xed, 0x20, 0xf7, 0xea, 0xfa, 0x4d, 0xda,
    0xf1, 0x2a, 0xda, 0xfc, 0x48, 0xfd, 0x33, 0x48, 0xe8, 0x4, 0x2b, 0x2b,
    0xf, 0x2, 0xcf, 0xe7, 0x34, 0x7, 0x1f, 0x38, 0xe5, 0x70, 0xd7, 0x46,
    0xf3, 0xfd, 0xd9, 0x7f, 0x2e, 0xfc, 0xff, 0xff, 0x4, 0x0, 0x0, 0x0,
    0x80, 0x1, 0x0, 0x0, 0x52, 0x2f, 0xcb, 0x3e, 0x8f, 0x4d, 0xcb, 0x3e,
    0xd2, 0x9, 0x3d, 0x3f, 0x24, 0x90, 0x2e, 0xbf, 0x65, 0xa9, 0xd2, 0x3d,
    0xdb, 0xa6, 0x32, 0xbf, 0x5d, 0x88, 0xd2, 0x3e, 0xc4, 0x18, 0xb, 0x3f,
    0x41, 0x3d, 0x35, 0x3f, 0x5d, 0x3f, 0xd1, 0x3d, 0x4d, 0x89, 0x18, 0x3e,
    0x2d, 0xfa, 0x18, 0xbe, 0x65, 0xa7, 0x75, 0xbf, 0xec, 0xdd, 0x45, 0xbf,
    0xf1, 0x6d, 0x3, 0xbf, 0x6e, 0xf1, 0x3d, 0xbf, 0xdb, 0x4b, 0xa5, 0xbf,
    0x4d, 0x86, 0x29, 0x3f, 0x83, 0x77, 0xb1, 0x3e, 0xa1, 0x38, 0x93, 0x3e,
    0x27, 0x14, 0xc3, 0x3e, 0x4e, 0x3f, 0xc7, 0xbd, 0xe3, 0x63, 0x48, 0xbe,
    0xcb, 0x97, 0x2b, 0x3e, 0x50, 0x39, 0x1e, 0xbf, 0x61, 0xd8, 0xc6, 0xbd,
    0xc6, 0x4f, 0xa9, 0xbd, 0xfa, 0x99, 0xda, 0x3e, 0xe4, 0x4a, 0x25, 0xbf,
    0x50, 0xea, 0x5, 0x3f, 0x95, 0x37, 0xa, 0xbf, 0x25, 0x50, 0x62, 0xbf,
    0x7b, 0x65, 0x93, 0xbe, 0xd4, 0x29, 0x73, 0xbd, 0x37, 0x1f, 0x3a, 0xbf,
    0xd2, 0x8e, 0x6a, 0xbe, 0x5a, 0xfe, 0x25, 0xbf, 0xe3, 0x7, 0x14, 0x3f,
    0xfc, 0xd0, 0x1b, 0xbf, 0x63, 0x82, 0x61, 0x3e, 0xa6, 0x7, 0xc9, 0xbe,
    0xcf, 0x1a, 0x2, 0x3f, 0x36, 0x30, 0x89, 0x3e, 0x2a, 0x47, 0x54, 0x3e,
    0x96, 0xf8, 0x2, 0x3f, 0x9f, 0x86, 0xa0, 0xbe, 0xb5, 0xda, 0x6c, 0x3f,
    0x32, 0x3d, 0x90, 0x3e, 0x8c, 0x62, 0x6a, 0xbf, 0x1, 0xee, 0x3c, 0xbf,
    0x30, 0x4c, 0x86, 0xbf, 0xa2, 0xa9, 0x12, 0xbf, 0xa0, 0xb3, 0xa1, 0x3e,
    0x82, 0x45, 0xd0, 0xbe, 0xe1, 0x3e, 0xf9, 0x3d, 0xd5, 0x3f, 0xf7, 0xbe,
    0xfe, 0x2d, 0x36, 0x3d, 0x47, 0xa1, 0x3f, 0x3f, 0xc7, 0x7c, 0x11, 0x3f,
    0x3c, 0x5a, 0xe, 0xbf, 0x76, 0x9d, 0x97, 0x3e, 0x19, 0x19, 0x0, 0xbf,
    0x7c, 0x3c, 0x4a, 0x3f, 0x36, 0x7e, 0x58, 0x3f, 0x55, 0x8a, 0xe8, 0x3d,
    0xc8, 0x95, 0xa3, 0xbe, 0xe9, 0x23, 0xc2, 0x3e, 0xcd, 0xda, 0x30, 0x3f,
    0xd2, 0xab, 0x9a, 0x3e, 0x48, 0xfc, 0xcf, 0xbe, 0xf0, 0x77, 0x27, 0x3e,
    0x2a, 0x66, 0x78, 0xbe, 0xbf, 0xd0, 0x76, 0xbe, 0x74, 0x20, 0xf4, 0xbf,
    0x2, 0xd5, 0xc3, 0xbf, 0xf6, 0xd9, 0x9b, 0xbf, 0xc5, 0x30, 0xc3, 0x3e,
    0x56, 0x2f, 0x96, 0x3f, 0x57, 0x22, 0xf1, 0xbe, 0x84, 0xc4, 0xb6, 0x3d,
    0x2c, 0xf8, 0x8c, 0x3f, 0x85, 0xcb, 0x2, 0xbe, 0x90, 0xdc, 0xaa, 0xbd,
    0xbb, 0x7c, 0x17, 0xbf, 0xb8, 0x5a, 0x9, 0xbf, 0xd, 0x5, 0xd6, 0xbc,
    0xfb, 0xc0, 0xd6, 0xbf, 0xa1, 0xa, 0x5b, 0xbf, 0xcb, 0xbd, 0x8a, 0xbd,
    0x4e, 0x13, 0x34, 0xbe, 0xcc, 0xc8, 0x52, 0xbe, 0x3b, 0x40, 0xf8, 0xbd,
    0x39, 0x82, 0xcd, 0xbe, 0x23, 0x9, 0x3e, 0xbe, 0x2, 0xe7, 0xf5, 0x3e,
    0x34, 0x8, 0x9c, 0x3e, 0xba, 0xfd, 0xff, 0xff, 0x4, 0x0, 0x0, 0x0,
    0xc, 0x0, 0x0, 0x0, 0xdb, 0x65, 0x71, 0xbd, 0xee, 0xe5, 0x93, 0xbd,
    0x5d, 0xdf, 0x50, 0x3e, 0xd2, 0xfd, 0xff, 0xff, 0x4, 0x0, 0x0, 0x0,
    0x80, 0x0, 0x0, 0x0, 0x4d, 0x49, 0xfd, 0x3e, 0x9d, 0xd8, 0x3, 0xbe,
    0x65, 0x97, 0xeb, 0x3e, 0xd2, 0xcc, 0x12, 0x3f, 0x80, 0xf8, 0x36, 0x3f,
    0xe2, 0xe8, 0x3, 0x3e, 0x9f, 0x49, 0xf2, 0x3e, 0x0, 0x81, 0x50, 0x3d,
    0x84, 0xbf, 0x66, 0x3e, 0x6b, 0x61, 0x86, 0x3d, 0xb2, 0xb2, 0xc, 0x3d,
    0x30, 0x0, 0x47, 0x3d, 0x9, 0xb8, 0xc2, 0x3e, 0x87, 0xe2, 0x19, 0x3f,
    0x2d, 0x62, 0x25, 0xbe, 0x5, 0xac, 0xa9, 0x3e, 0x40, 0x84, 0xe, 0x3f,
    0x5f, 0x4f, 0x9a, 0x3e, 0x3e, 0xb6, 0x26, 0x3f, 0xdd, 0xe5, 0xa9, 0x3e,
    0xaa, 0xb6, 0x46, 0xbe, 0x77, 0x55, 0xe0, 0x3d, 0xff, 0x6a, 0x83, 0x3d,
    0xad, 0x83, 0xd3, 0x3b, 0x6b, 0x94, 0xa0, 0x3d, 0xe4, 0x8, 0xd, 0x3e,
    0x18, 0x94, 0xb7, 0xbc, 0xdf, 0xcd, 0x8c, 0x3e, 0x55, 0xde, 0x17, 0x3d,
    0x8e, 0x28, 0x9a, 0x3e, 0xfa, 0x0, 0x88, 0x3e, 0x60, 0x18, 0x89, 0x3e,
    0x5e, 0xfe, 0xff, 0xff, 0x4, 0x0, 0x0, 0x0, 0x0, 0x1, 0x0, 0x0,
    0xf3, 0x7d, 0x28, 0xbe, 0xca, 0xd6, 0x15, 0xbe, 0x49, 0xe2, 0x81, 0xbe,
    0x26, 0x53, 0xaf, 0xbd, 0x2f, 0xb5, 0xfe, 0xbe, 0xd3, 0x96, 0x16, 0xbe,
    0x1b, 0x57, 0x71, 0xbe, 0xb5, 0xb, 0xc1, 0xbd, 0x19, 0xed, 0x16, 0xbf,
    0x3a, 0x7c, 0xed, 0xbe, 0x70, 0x94, 0x7b, 0xbe, 0x8c, 0xe8, 0x21, 0xbf,
    0x16, 0xa4, 0x6c, 0xbd, 0xd7, 0x8f, 0x1d, 0x3d, 0x43, 0xe, 0x5, 0xbf,
    0x5c, 0xa9, 0xba, 0xbe, 0x8b, 0xd6, 0xe5, 0xbe, 0xa0, 0xaf, 0x51, 0xbd,
    0x1e, 0x85, 0xe5, 0xbd, 0x74, 0x3b, 0x20, 0xbe, 0x7a, 0x26, 0xa1, 0x3d,
    0xeb, 0x3e, 0x53, 0xbe, 0x2e, 0xe1, 0xb0, 0xbe, 0x49, 0x8a, 0xbb, 0xbd,
    0x3, 0x78, 0xd8, 0xbd, 0x33, 0x75, 0x24, 0x3d, 0x57, 0x80, 0x0, 0x3e,
    0x97, 0xf0, 0x86, 0xbe, 0x84, 0xa3, 0xc9, 0xbe, 0x1b, 0xbe, 0x21, 0xbe,
    0xaa, 0xa1, 0xe8, 0xbe, 0x13, 0xf2, 0xb0, 0xbe, 0xec, 0xf, 0x6a, 0xbe,
    0x90, 0xad, 0xb6, 0xbe, 0xa1, 0xfe, 0x19, 0xbe, 0x9a, 0xeb, 0x14, 0xbe,
    0x17, 0x3e, 0x4e, 0xbe, 0x85, 0xc3, 0x32, 0xbf, 0xd6, 0x84, 0xb9, 0xbe,
    0x1b, 0x1d, 0xca, 0xbe, 0x88, 0xa5, 0x1f, 0xbf, 0x66, 0xba, 0x3a, 0xbb,
    0xee, 0xec, 0x92, 0xbe, 0x5c, 0x86, 0xb4, 0xbe, 0xd4, 0xe7, 0xc2, 0xbe,
    0x66, 0x79, 0xbd, 0xbd, 0x87, 0xc5, 0xa3, 0xbe, 0x5c, 0x68, 0xe0, 0xbd,
    0xf0, 0x75, 0xf1, 0xbe, 0xcc, 0xd2, 0xdc, 0xbe, 0xc5, 0x58, 0x7c, 0xbe,
    0x16, 0xc5, 0x9f, 0xbe, 0x27, 0x87, 0xcc, 0xbe, 0x19, 0xea, 0xad, 0xbd,
    0xc, 0x5a, 0x6, 0xbf, 0x5a, 0x19, 0xbe, 0xbd, 0x6c, 0x5, 0xfc, 0xbe,
    0x74, 0x47, 0x48, 0xbf, 0x42, 0x51, 0x9a, 0xbe, 0xb4, 0xbf, 0xe1, 0xbe,
    0xc2, 0x85, 0xcf, 0xbe, 0x63, 0x8f, 0xcd, 0xbe, 0x2, 0x21, 0x38, 0xbe,
    0xf3, 0xfb, 0xbe, 0xbe, 0xc8, 0xf5, 0xff, 0xff, 0xcc, 0xf5, 0xff, 0xff,
    0xf, 0x0, 0x0, 0x0, 0x4d, 0x4c, 0x49, 0x52, 0x20, 0x43, 0x6f, 0x6e,
